{
  "version": "1.0",
  "truncation": null,
  "padding": null,
  "added_tokens": [
    {
      "id": 0,
      "content": "<|unk|>",
      "single_word": false,
      "lstrip": false,
      "rstrip": false,
      "normalized": false,
      "special": true
    },
    {
      "id": 1,
      "content": "<|pad|>",
      "single_word": false,
      "lstrip": false,
      "rstrip": false,
      "normalized": false,
      "special": true
    },
    {
      "id": 2,
      "content": "<|bos|>",
      "single_word": false,
      "lstrip": false,
      "rstrip": false,
      "normalized": false,
      "special": true
    },
    {
      "id": 3,
      "content": "<|user|>",
      "single_word": false,
      "lstrip": false,
      "rstrip": false,
      "normalized": false,
      "special": true
    },
    {
      "id": 4,
      "content": "<|assistant|>",
      "single_word": false,
      "lstrip": false,
      "rstrip": false,
      "normalized": false,
      "special": true
    },
    {
      "id": 5,
      "content": "<|eos|>",
      "single_word": false,
      "lstrip": false,
      "rstrip": false,
      "normalized": false,
      "special": true
    }
  ],
  "normalizer": null,
  "pre_tokenizer": {
    "type": "ByteLevel",
    "add_prefix_space": false,
    "trim_offsets": true,
    "use_regex": true
  },
  "post_processor": null,
  "decoder": {
    "type": "ByteLevel",
    "add_prefix_space": true,
    "trim_offsets": true,
    "use_regex": true
  },
  "model": {
    "type": "BPE",
    "dropout": null,
    "unk_token": "<|unk|>",
    "continuing_subword_prefix": null,
    "end_of_word_suffix": null,
    "fuse_unk": false,
    "byte_fallback": false,
    "ignore_merges": false,
    "vocab": {
      "<|unk|>": 0,
      "<|pad|>": 1,
      "<|bos|>": 2,
      "<|user|>": 3,
      "<|assistant|>": 4,
      "<|eos|>": 5,
      "!": 6,
      "\"": 7,
      "#": 8,
      "$": 9,
      "%": 10,
      "&": 11,
      "'": 12,
      "(": 13,
      ")": 14,
      "*": 15,
      "+": 16,
      ",": 17,
      "-": 18,
      ".": 19,
      "/": 20,
      "0": 21,
      "1": 22,
      "2": 23,
      "3": 24,
      "4": 25,
      "5": 26,
      "6": 27,
      "7": 28,
      "8": 29,
      "9": 30,
      ":": 31,
      ";": 32,
      "<": 33,
      "=": 34,
      ">": 35,
      "?": 36,
      "@": 37,
      "A": 38,
      "B": 39,
      "C": 40,
      "D": 41,
      "E": 42,
      "F": 43,
      "G": 44,
      "H": 45,
      "I": 46,
      "J": 47,
      "K": 48,
      "L": 49,
      "M": 50,
      "N": 51,
      "O": 52,
      "P": 53,
      "Q": 54,
      "R": 55,
      "S": 56,
      "T": 57,
      "U": 58,
      "V": 59,
      "W": 60,
      "X": 61,
      "Y": 62,
      "Z": 63,
      "[": 64,
      "\\": 65,
      "]": 66,
      "^": 67,
      "_": 68,
      "`": 69,
      "a": 70,
      "b": 71,
      "c": 72,
      "d": 73,
      "e": 74,
      "f": 75,
      "g": 76,
      "h": 77,
      "i": 78,
      "j": 79,
      "k": 80,
      "l": 81,
      "m": 82,
      "n": 83,
      "o": 84,
      "p": 85,
      "q": 86,
      "r": 87,
      "s": 88,
      "t": 89,
      "u": 90,
      "v": 91,
      "w": 92,
      "x": 93,
      "y": 94,
      "z": 95,
      "{": 96,
      "|": 97,
      "}": 98,
      "~": 99,
      "¡": 100,
      "¢": 101,
      "£": 102,
      "¤": 103,
      "¥": 104,
      "¦": 105,
      "§": 106,
      "¨": 107,
      "©": 108,
      "ª": 109,
      "«": 110,
      "¬": 111,
      "®": 112,
      "¯": 113,
      "°": 114,
      "±": 115,
      "²": 116,
      "³": 117,
      "´": 118,
      "µ": 119,
      "¶": 120,
      "·": 121,
      "¸": 122,
      "¹": 123,
      "º": 124,
      "»": 125,
      "¼": 126,
      "½": 127,
      "¾": 128,
      "¿": 129,
      "À": 130,
      "Á": 131,
      "Â": 132,
      "Ã": 133,
      "Ä": 134,
      "Å": 135,
      "Æ": 136,
      "Ç": 137,
      "È": 138,
      "É": 139,
      "Ê": 140,
      "Ë": 141,
      "Ì": 142,
      "Í": 143,
      "Î": 144,
      "Ï": 145,
      "Ð": 146,
      "Ñ": 147,
      "Ò": 148,
      "Ó": 149,
      "Ô": 150,
      "Õ": 151,
      "Ö": 152,
      "×": 153,
      "Ø": 154,
      "Ù": 155,
      "Ú": 156,
      "Û": 157,
      "Ü": 158,
      "Ý": 159,
      "Þ": 160,
      "ß": 161,
      "à": 162,
      "á": 163,
      "â": 164,
      "ã": 165,
      "ä": 166,
      "å": 167,
      "æ": 168,
      "ç": 169,
      "è": 170,
      "é": 171,
      "ê": 172,
      "ë": 173,
      "ì": 174,
      "í": 175,
      "î": 176,
      "ï": 177,
      "ð": 178,
      "ñ": 179,
      "ò": 180,
      "ó": 181,
      "ô": 182,
      "õ": 183,
      "ö": 184,
      "÷": 185,
      "ø": 186,
      "ù": 187,
      "ú": 188,
      "û": 189,
      "ü": 190,
      "ý": 191,
      "þ": 192,
      "ÿ": 193,
      "Ā": 194,
      "ā": 195,
      "Ă": 196,
      "ă": 197,
      "Ą": 198,
      "ą": 199,
      "Ć": 200,
      "ć": 201,
      "Ĉ": 202,
      "ĉ": 203,
      "Ċ": 204,
      "ċ": 205,
      "Č": 206,
      "č": 207,
      "Ď": 208,
      "ď": 209,
      "Đ": 210,
      "đ": 211,
      "Ē": 212,
      "ē": 213,
      "Ĕ": 214,
      "ĕ": 215,
      "Ė": 216,
      "ė": 217,
      "Ę": 218,
      "ę": 219,
      "Ě": 220,
      "ě": 221,
      "Ĝ": 222,
      "ĝ": 223,
      "Ğ": 224,
      "ğ": 225,
      "Ġ": 226,
      "ġ": 227,
      "Ģ": 228,
      "ģ": 229,
      "Ĥ": 230,
      "ĥ": 231,
      "Ħ": 232,
      "ħ": 233,
      "Ĩ": 234,
      "ĩ": 235,
      "Ī": 236,
      "ī": 237,
      "Ĭ": 238,
      "ĭ": 239,
      "Į": 240,
      "į": 241,
      "İ": 242,
      "ı": 243,
      "Ĳ": 244,
      "ĳ": 245,
      "Ĵ": 246,
      "ĵ": 247,
      "Ķ": 248,
      "ķ": 249,
      "ĸ": 250,
      "Ĺ": 251,
      "ĺ": 252,
      "Ļ": 253,
      "ļ": 254,
      "Ľ": 255,
      "ľ": 256,
      "Ŀ": 257,
      "ŀ": 258,
      "Ł": 259,
      "ł": 260,
      "Ń": 261,
      "čĊ": 262,
      "<|": 263,
      "|>": 264,
      "Ġa": 265,
      "os": 266,
      "er": 267,
      "Ġt": 268,
      "an": 269,
      "Ġm": 270,
      "st": 271,
      "ke": 272,
      "as": 273,
      "he": 274,
      "us": 275,
      "in": 276,
      "Ġme": 277,
      "si": 278,
      "ant": 279,
      "sist": 280,
      "bos": 281,
      "user": 282,
      "eos": 283,
      "sistant": 284,
      "assistant": 285,
      "Ġj": 286,
      "ll": 287,
      "Ġs": 288,
      "Ġw": 289,
      "on": 290,
      "oke": 291,
      "Ġjoke": 292,
      "ou": 293,
      "Ġc": 294,
      "Ġthe": 295,
      "at": 296,
      "Ġb": 297,
      "Ġd": 298,
      "Ġf": 299,
      "or": 300,
      "ve": 301,
      "re": 302,
      "ell": 303,
      "Ġl": 304,
      "Ġh": 305,
      "it": 306,
      "ing": 307,
      "Tell": 308,
      "\"\"": 309,
      "le": 310,
      "ĠI": 311,
      "Ġy": 312,
      "Ġto": 313,
      "Ġp": 314,
      "is": 315,
      "Ġyou": 316,
      "en": 317,
      "Ġg": 318,
      "ar": 319,
      "..": 320,
      "ive": 321,
      "hat": 322,
      "Ġon": 323,
      "Ġo": 324,
      "Ġan": 325,
      "Give": 326,
      "ed": 327,
      "gh": 328,
      "Ġin": 329,
      "es": 330,
      "un": 331,
      "om": 332,
      "ow": 333,
      "Ġn": 334,
      "ake": 335,
      "ay": 336,
      "Ġsh": 337,
      "et": 338,
      "'s": 339,
      "Ġdo": 340,
      "id": 341,
      "Ġof": 342,
      "ic": 343,
      "Ġand": 344,
      "ot": 345,
      "Ġone": 346,
      "Ġla": 347,
      "ĠT": 348,
      "Ġth": 349,
      "What": 350,
      "al": 351,
      "ort": 352,
      "Ġbe": 353,
      "Ġit": 354,
      "Ġis": 355,
      "ny": 356,
      "Ġe": 357,
      "Ġfun": 358,
      "Ġ\"\"": 359,
      "ugh": 360,
      "Ġcle": 361,
      "ad": 362,
      "all": 363,
      "ac": 364,
      "Ġfunny": 365,
      "Ġlaugh": 366,
      "Ġclean": 367,
      "Ġshort": 368,
      "ld": 369,
      "ĠA": 370,
      "Make": 371,
      "ir": 372,
      "'t": 373,
      "Ġmy": 374,
      "...": 375,
      "ut": 376,
      "out": 377,
      "oo": 378,
      "ver": 379,
      "ri": 380,
      "ĠB": 381,
      "Ġre": 382,
      "ĠS": 383,
      "Ġli": 384,
      "Ġhe": 385,
      "Ġst": 386,
      "am": 387,
      "ave": 388,
      "her": 389,
      "Ġwas": 390,
      "ĠM": 391,
      "Ġfor": 392,
      "if": 393,
      "op": 394,
      "im": 395,
      "ĠH": 396,
      "ly": 397,
      "Ġk": 398,
      "ith": 399,
      "Ġthat": 400,
      "hy": 401,
      "Ġwith": 402,
      "ec": 403,
      "ĠW": 404,
      "Ġr": 405,
      "ent": 406,
      "use": 407,
      "hen": 408,
      "Ġhave": 409,
      "ĠC": 410,
      "ust": 411,
      "ur": 412,
      "ght": 413,
      "ch": 414,
      "up": 415,
      "\"\"\"": 416,
      "Ġlike": 417,
      "ho": 418,
      "Ġcan": 419,
      "Ġyour": 420,
      "ce": 421,
      "ck": 422,
      "ĠThe": 423,
      "ion": 424,
      "Ġare": 425,
      "ĠD": 426,
      "ill": 427,
      "Ġat": 428,
      "Ġdid": 429,
      "Ġsay": 430,
      "one": 431,
      "Ġas": 432,
      "ome": 433,
      "ter": 434,
      "Ġne": 435,
      "ould": 436,
      "end": 437,
      "Ġget": 438,
      "el": 439,
      "um": 440,
      "Why": 441,
      "and": 442,
      "ere": 443,
      "ause": 444,
      "Ġcall": 445,
      "ĠP": 446,
      "Ġout": 447,
      "Ġthey": 448,
      "'m": 449,
      "Ġwhen": 450,
      "Ġse": 451,
      "Ġab": 452,
      "ĠN": 453,
      "ap": 454,
      "ks": 455,
      "Ġso": 456,
      "ro": 457,
      "Ġkn": 458,
      "Ġgo": 459,
      "ge": 460,
      "ĠG": 461,
      "Ġman": 462,
      "Ġjust": 463,
      "Ġup": 464,
      "Ġhis": 465,
      "Ġabout": 466,
      "art": 467,
      "ers": 468,
      "Ġbut": 469,
      "nd": 470,
      "Ġch": 471,
      "ab": 472,
      "ack": 473,
      "Ġdon": 474,
      "ĠF": 475,
      "il": 476,
      "Ġwe": 477,
      "You": 478,
      "ĠJ": 479,
      "ard": 480,
      "ist": 481,
      "ate": 482,
      "Ġnot": 483,
      "Ġwor": 484,
      "Ġdoes": 485,
      "ry": 486,
      "ĠO": 487,
      "king": 488,
      "ie": 489,
      "Ġsa": 490,
      "ol": 491,
      "ally": 492,
      "Ġpe": 493,
      "Ġfr": 494,
      "Ġknow": 495,
      "Ġwho": 496,
      "ore": 497,
      "Ġher": 498,
      "ast": 499,
      "ind": 500,
      "ct": 501,
      "ĠIt": 502,
      "ood": 503,
      "ul": 504,
      "Ġcom": 505,
      "ep": 506,
      "Ġthis": 507,
      "to": 508,
      "How": 509,
      "Ġall": 510,
      "very": 511,
      "ople": 512,
      "we": 513,
      "Ġbl": 514,
      "Ġshe": 515,
      "ĠR": 516,
      "ĠHe": 517,
      "'re": 518,
      "ain": 519,
      "My": 520,
      "nt": 521,
      "ecause": 522,
      "irl": 523,
      "ig": 524,
      "ĠL": 525,
      "Ġal": 526,
      "riend": 527,
      "Ġle": 528,
      "od": 529,
      "uy": 530,
      "ight": 531,
      "ost": 532,
      "Ġif": 533,
      "ĠBecause": 534,
      "ite": 535,
      "Ġpeople": 536,
      "Ġbet": 537,
      "Ġ1": 538,
      "uck": 539,
      "Ġinto": 540,
      "ĠE": 541,
      "Ġfrom": 542,
      "Ġwhat": 543,
      "ame": 544,
      "here": 545,
      "av": 546,
      "ink": 547,
      "Ġsp": 548,
      "Ġdr": 549,
      "Ġwant": 550,
      "hing": 551,
      "se": 552,
      "are": 553,
      "ag": 554,
      "Ġsome": 555,
      ".\"": 556,
      "est": 557,
      "ear": 558,
      "Ġgirl": 559,
      "em": 560,
      "Ġun": 561,
      "ked": 562,
      "Ġpl": 563,
      "fer": 564,
      "Ġsi": 565,
      "ine": 566,
      "Ġ*": 567,
      "Ġno": 568,
      "ound": 569,
      "Ġcon": 570,
      "ĠYou": 571,
      "Ġsaid": 572,
      "ick": 573,
      "own": 574,
      "ip": 575,
      "Ġmake": 576,
      "ence": 577,
      "qu": 578,
      "ong": 579,
      "ile": 580,
      "Ġgot": 581,
      "our": 582,
      "Ġthere": 583,
      "Ġor": 584,
      "Ġex": 585,
      "ice": 586,
      "ies": 587,
      "ĠMe": 588,
      "Ġwh": 589,
      "Ġcl": 590,
      "ime": 591,
      "way": 592,
      "ther": 593,
      "Ġde": 594,
      "ish": 595,
      "ife": 596,
      "der": 597,
      "Ġthem": 598,
      "Ġv": 599,
      "Ġtake": 600,
      "ook": 601,
      "ock": 602,
      "Ġwal": 603,
      "Ġwould": 604,
      "The": 605,
      "Ġbec": 606,
      "ure": 607,
      "Ġoff": 608,
      "ation": 609,
      "Ġother": 610,
      "ĠThey": 611,
      "Ġguy": 612,
      "les": 613,
      "Ġ...": 614,
      "Ġhad": 615,
      "Ġar": 616,
      "ween": 617,
      "Ġlo": 618,
      ".\"\"\"": 619,
      "Ġwom": 620,
      "Ġ-": 621,
      "Ġbetween": 622,
      "wo": 623,
      "de": 624,
      "Ġdif": 625,
      "ĠK": 626,
      "ian": 627,
      "Ġ2": 628,
      "Ġhim": 629,
      "Ġsc": 630,
      "Ġhas": 631,
      "ob": 632,
      "Ġtr": 633,
      "Ġtime": 634,
      "Ġevery": 635,
      "Ġgr": 636,
      "Ġdiffer": 637,
      "Ġhow": 638,
      "Ġsays": 639,
      "ting": 640,
      "ace": 641,
      "ub": 642,
      "If": 643,
      "Ġbr": 644,
      "?\"\"": 645,
      "ose": 646,
      "pl": 647,
      "day": 648,
      "Ġany": 649,
      "ire": 650,
      "Ġcr": 651,
      "Ġtheir": 652,
      "ess": 653,
      "ff": 654,
      "Ġby": 655,
      "ĠWhat": 656,
      "Ġdifference": 657,
      "Ġwill": 658,
      "Ġday": 659,
      "Ġpre": 660,
      "Ġhear": 661,
      "ne": 662,
      "ree": 663,
      "Ġonly": 664,
      "'ve": 665,
      "Ġthink": 666,
      "'ll": 667,
      "Ġpro": 668,
      "Ġbecause": 669,
      "Ġcould": 670,
      "Ġbar": 671,
      "ber": 672,
      "Ġwife": 673,
      "ass": 674,
      "Ġfe": 675,
      "Ġtell": 676,
      "ĠCh": 677,
      "app": 678,
      "Ġover": 679,
      "pp": 680,
      "Ġfriend": 681,
      "ump": 682,
      "oy": 683,
      "Ġthing": 684,
      "Ġdown": 685,
      "urn": 686,
      "Ġho": 687,
      "iz": 688,
      "Ġback": 689,
      "Ġmany": 690,
      "th": 691,
      "ang": 692,
      "ble": 693,
      "ts": 694,
      "....": 695,
      "Ġco": 696,
      "Ġyear": 697,
      "Ġpr": 698,
      "Ġsm": 699,
      "Ġtoo": 700,
      "Ġnever": 701,
      "Ġwere": 702,
      "Ġwat": 703,
      "ud": 704,
      "ool": 705,
      "Ġus": 706,
      "Ġnew": 707,
      "Ġsee": 708,
      "Ġgood": 709,
      "Ġgoing": 710,
      "Ġro": 711,
      "fter": 712,
      "ans": 713,
      "Ġche": 714,
      "Ġnow": 715,
      "ug": 716,
      "!!": 717,
      "Ġcar": 718,
      "age": 719,
      "Ġte": 720,
      "other": 721,
      "irst": 722,
      "ull": 723,
      "Ġreally": 724,
      "Ġeat": 725,
      "orn": 726,
      "elf": 727,
      "ous": 728,
      "reat": 729,
      "Ġi": 730,
      "ew": 731,
      "ide": 732,
      "ty": 733,
      "Ġbeen": 734,
      "og": 735,
      "ĠY": 736,
      "Ġdog": 737,
      "ways": 738,
      "Ġshould": 739,
      "ough": 740,
      "ase": 741,
      "'d": 742,
      "Ġtwo": 743,
      "ade": 744,
      "ra": 745,
      ".\"\"": 746,
      "Ġtold": 747,
      "mer": 748,
      "friend": 749,
      "ss": 750,
      "ich": 751,
      "Ġsex": 752,
      "oss": 753,
      "Ġ'": 754,
      "Ġthen": 755,
      "Ġfav": 756,
      "Ġri": 757,
      "Ġkid": 758,
      "uch": 759,
      "ĠU": 760,
      "ach": 761,
      "ect": 762,
      "tle": 763,
      "Ġag": 764,
      "Ġfl": 765,
      "Ġasked": 766,
      "Ġalways": 767,
      "Ġlove": 768,
      "air": 769,
      "ven": 770,
      "ought": 771,
      "ak": 772,
      "cc": 773,
      "Ġmo": 774,
      "Ġlight": 775,
      "man": 776,
      "Ġke": 777,
      "Ġold": 778,
      "Ġ3": 779,
      "Ġdi": 780,
      "ond": 781,
      "ah": 782,
      "igh": 783,
      "ĠBut": 784,
      "Ġneed": 785,
      "Ġfirst": 786,
      "Ġsomeone": 787,
      "Ġthan": 788,
      "Ġafter": 789,
      "get": 790,
      "ĠSt": 791,
      "ĠSo": 792,
      "Ġam": 793,
      "Did": 794,
      "Ġmore": 795,
      "Ġqu": 796,
      "Ġwr": 797,
      "ĠTh": 798,
      "fe": 799,
      "ild": 800,
      "Ġblack": 801,
      "pt": 802,
      "Ġdidn": 803,
      "Ġput": 804,
      "Ġplay": 805,
      "ary": 806,
      "00": 807,
      "Ġway": 808,
      "self": 809,
      "na": 810,
      "ue": 811,
      "Ġwhy": 812,
      "ity": 813,
      "ĠShe": 814,
      "ee": 815,
      "Ġwork": 816,
      "Ġcomm": 817,
      "fore": 818,
      "Ġ&": 819,
      "Ġcat": 820,
      "Ġever": 821,
      "Ġwoman": 822,
      "Ġ[": 823,
      "Ġwon": 824,
      "Ġph": 825,
      "Ġbab": 826,
      "omet": 827,
      "ving": 828,
      "Ġen": 829,
      "Ġ(": 830,
      "oth": 831,
      "Ġstart": 832,
      "Ġfavor": 833,
      "ctor": 834,
      "Ġmar": 835,
      "Ġtoday": 836,
      "Ġwomen": 837,
      "aking": 838,
      "Ġhand": 839,
      "ath": 840,
      "Ġfavorite": 841,
      "ried": 842,
      "Ġstop": 843,
      "hes": 844,
      "act": 845,
      "oc": 846,
      "ody": 847,
      "Ġdis": 848,
      "ange": 849,
      "Ġmuch": 850,
      "Ġwalks": 851,
      "Ġad": 852,
      "Ġbefore": 853,
      "Ġdoesn": 854,
      "Ġgirlfriend": 855,
      "xt": 856,
      "Ġpart": 857,
      "Ġlast": 858,
      "ER": 859,
      "dit": 860,
      "Ġright": 861,
      "Ġnight": 862,
      "Ġlife": 863,
      "!\"\"": 864,
      "ait": 865,
      "Ġlit": 866,
      "Ġim": 867,
      "Ġcalled": 868,
      "When": 869,
      "thing": 870,
      "Ġ5": 871,
      "amp": 872,
      "ating": 873,
      "Ġgive": 874,
      "wn": 875,
      "able": 876,
      "ount": 877,
      "ars": 878,
      "ĠAnd": 879,
      "Ġturn": 880,
      "Ġmade": 881,
      "ft": 882,
      "Ġhere": 883,
      "Ġbest": 884,
      "Ġ!": 885,
      "Ġtal": 886,
      "aving": 887,
      "OO": 888,
      "Ġshow": 889,
      "Ġfat": 890,
      "erson": 891,
      "Ġfeel": 892,
      "Ġcomp": 893,
      "ulb": 894,
      "Ġunder": 895,
      "ment": 896,
      "Ġlet": 897,
      "Ġhapp": 898,
      "Ġthr": 899,
      "Ġbeing": 900,
      "Ġ?": 901,
      "Ġfuck": 902,
      "Ġshit": 903,
      "iss": 904,
      "Ġwent": 905,
      "Ġlong": 906,
      "Ġname": 907,
      "ĠV": 908,
      "ican": 909,
      "Ġsl": 910,
      "Ġbad": 911,
      "ph": 912,
      "ict": 913,
      "te": 914,
      "Ġmost": 915,
      "hed": 916,
      "Ġreal": 917,
      "Ġcome": 918,
      "ated": 919,
      "ial": 920,
      "int": 921,
      "rying": 922,
      "ail": 923,
      "Ġscre": 924,
      "Ġwhere": 925,
      "ord": 926,
      "Ġbaby": 927,
      "sh": 928,
      "Ġbo": 929,
      "ress": 930,
      "ĠIn": 931,
      "ĠTr": 932,
      "Ġrun": 933,
      "Ġbig": 934,
      "Ġstill": 935,
      "Ġkill": 936,
      "Ġ9": 937,
      "Ġhome": 938,
      "rist": 939,
      "Ġbre": 940,
      "Ġass": 941,
      "Ġloo": 942,
      "Ġlook": 943,
      "Ġmom": 944,
      "Ġkeep": 945,
      "ale": 946,
      "ese": 947,
      "nock": 948,
      "Ġpen": 949,
      "Ġlittle": 950,
      "ey": 951,
      "Ġfind": 952,
      "ors": 953,
      "Ġperson": 954,
      "ise": 955,
      "ĠNo": 956,
      "ank": 957,
      "Ġhard": 958,
      "per": 959,
      "ren": 960,
      "icke": 961,
      "ĠThat": 962,
      "Ġuse": 963,
      "Ġacc": 964,
      "ons": 965,
      "Ġlot": 966,
      "Ġwatch": 967,
      "pen": 968,
      "Ġ4": 969,
      "ance": 970,
      "ĠOne": 971,
      "Ġyears": 972,
      "It": 973,
      "vie": 974,
      "!\"\"\"": 975,
      "Ġwalk": 976,
      "Ġagain": 977,
      "So": 978,
      "oney": 979,
      "Ġcross": 980,
      "oup": 981,
      "?\"\"\"": 982,
      "ĠWhy": 983,
      "erm": 984,
      "Ġsomet": 985,
      "Ġpo": 986,
      "less": 987,
      "ia": 988,
      "unch": 989,
      "ĠDo": 990,
      "arent": 991,
      "Ġmen": 992,
      "Ġjokes": 993,
      "Ġrepl": 994,
      "Ġleg": 995,
      "ger": 996,
      "side": 997,
      "Ġele": 998,
      "Ġrem": 999,
      "Do": 1000,
      "az": 1001,
      "orry": 1002,
      "ĠIf": 1003,
      "Ġthought": 1004,
      "ĠDon": 1005,
      "Ġred": 1006,
      "Ġheard": 1007,
      "ĠMy": 1008,
      "Ġaround": 1009,
      "yp": 1010,
      "Ġsec": 1011,
      "Ġhouse": 1012,
      "Ġsn": 1013,
      "Ġwhile": 1014,
      "^^": 1015,
      "gn": 1016,
      "Ġchild": 1017,
      "ever": 1018,
      "aw": 1019,
      "Ġapp": 1020,
      "Ġgreat": 1021,
      "dy": 1022,
      "Ġboth": 1023,
      "Ġey": 1024,
      "uc": 1025,
      "Ġ.": 1026,
      "ark": 1027,
      "ily": 1028,
      "Ġjob": 1029,
      "Ġhate": 1030,
      "Ġgu": 1031,
      "Ġbel": 1032,
      "ĠAn": 1033,
      "Ġchange": 1034,
      "Ġword": 1035,
      "Ġboy": 1036,
      "ird": 1037,
      "Ġper": 1038,
      "ually": 1039,
      "lease": 1040,
      "Ġhead": 1041,
      "leep": 1042,
      "Ġonce": 1043,
      "Ġworld": 1044,
      "ning": 1045,
      "Ġhaving": 1046,
      "Ġeven": 1047,
      "ious": 1048,
      "ĠWe": 1049,
      "Ġasks": 1050,
      "Ġcommon": 1051,
      "Ġgay": 1052,
      "Ġread": 1053,
      "co": 1054,
      "Ġphone": 1055,
      "ĠTrump": 1056,
      "Ġact": 1057,
      "ĠHow": 1058,
      "IN": 1059,
      "me": 1060,
      "Ġsw": 1061,
      "ory": 1062,
      "Ġpol": 1063,
      "Ġstand": 1064,
      "ions": 1065,
      "ists": 1066,
      "Ġsaw": 1067,
      "Ġwanted": 1068,
      "Ġwait": 1069,
      "Ġbus": 1070,
      "Ġfound": 1071,
      "Ġcouldn": 1072,
      "Ġused": 1073,
      "Ġkids": 1074,
      "augh": 1075,
      "oot": 1076,
      "Ġgetting": 1077,
      "Ġdad": 1078,
      "Ġvery": 1079,
      "sion": 1080,
      "ants": 1081,
      "Ġcame": 1082,
      "ĠWhen": 1083,
      "Ġnext": 1084,
      "Ġguys": 1085,
      "Ġhappen": 1086,
      "Ġsomething": 1087,
      "Th": 1088,
      "There": 1089,
      "Ġown": 1090,
      "Ġ6": 1091,
      "room": 1092,
      "Ġrec": 1093,
      "chool": 1094,
      "sp": 1095,
      "Ġits": 1096,
      "Ġ10": 1097,
      "Ġpret": 1098,
      "Ġthings": 1099,
      "ket": 1100,
      "Ġeveryone": 1101,
      "Ġgl": 1102,
      "Ġdoctor": 1103,
      "port": 1104,
      "Ġhot": 1105,
      "ope": 1106,
      "Ġatt": 1107,
      "Ġwear": 1108,
      "Ġdead": 1109,
      "Ġmin": 1110,
      "Ġsup": 1111,
      "ows": 1112,
      "ident": 1113,
      "ute": 1114,
      "Ġwhite": 1115,
      "Ġend": 1116,
      "Ġhigh": 1117,
      "Ġgets": 1118,
      "uff": 1119,
      "Ġser": 1120,
      "imes": 1121,
      "ender": 1122,
      "No": 1123,
      "ms": 1124,
      "Ġlive": 1125,
      "ald": 1126,
      "ĠWho": 1127,
      "Ġstr": 1128,
      "ult": 1129,
      "Ġwrong": 1130,
      "aur": 1131,
      "Ġ7": 1132,
      "Ġaway": 1133,
      "Ġmon": 1134,
      "orr": 1135,
      "Ġinter": 1136,
      "Ġve": 1137,
      "esus": 1138,
      "als": 1139,
      "icken": 1140,
      "ead": 1141,
      "Ġhit": 1142,
      "ĠTo": 1143,
      "ied": 1144,
      "Ġsu": 1145,
      "Ġkind": 1146,
      "Ġbetter": 1147,
      "aa": 1148,
      "ler": 1149,
      "ster": 1150,
      "ator": 1151,
      "Ġfall": 1152,
      "read": 1153,
      "ins": 1154,
      "Ġsk": 1155,
      "Ġbuy": 1156,
      "Ġgoes": 1157,
      "ather": 1158,
      "Ġface": 1159,
      "ably": 1160,
      "Ġfood": 1161,
      "ents": 1162,
      "be": 1163,
      "ater": 1164,
      "Ġem": 1165,
      "izz": 1166,
      "Ġschool": 1167,
      "Ġfam": 1168,
      "ĠME": 1169,
      "Ġroom": 1170,
      "Ġz": 1171,
      "Ġfin": 1172,
      "Ġinst": 1173,
      "ĠTH": 1174,
      "Ġleave": 1175,
      "Ġcont": 1176,
      "ĠChrist": 1177,
      "LL": 1178,
      "br": 1179,
      "ner": 1180,
      "Ġfire": 1181,
      "Ġdoor": 1182,
      "Ġwater": 1183,
      "Ġmean": 1184,
      "Ġopen": 1185,
      "ieve": 1186,
      "Ġunt": 1187,
      "Just": 1188,
      "cer": 1189,
      "ash": 1190,
      "Ġsure": 1191,
      "ĠAmer": 1192,
      "uts": 1193,
      "Ġrest": 1194,
      "Hey": 1195,
      "Ġmoney": 1196,
      "Ġsur": 1197,
      "onna": 1198,
      "ted": 1199,
      "Ġmat": 1200,
      "Ġball": 1201,
      "Ġdec": 1202,
      "vent": 1203,
      "ĠAl": 1204,
      "Ġrac": 1205,
      "Ġleft": 1206,
      "OU": 1207,
      "Ġson": 1208,
      "ĠJew": 1209,
      "Ġsit": 1210,
      "my": 1211,
      "Ġtw": 1212,
      "Ġsleep": 1213,
      "ole": 1214,
      "Ġdoing": 1215,
      "ical": 1216,
      "ĠCl": 1217,
      "Ġdied": 1218,
      "Ġtyp": 1219,
      "Ġinc": 1220,
      "Ġmyself": 1221,
      "umb": 1222,
      "ĠNot": 1223,
      "olog": 1224,
      "Ġ20": 1225,
      "Don": 1226,
      "lic": 1227,
      "Ġwell": 1228,
      "Ġthree": 1229,
      "outh": 1230,
      "Ġchicken": 1231,
      "bably": 1232,
      "sy": 1233,
      "unk": 1234,
      "ĠSh": 1235,
      "Ġwithout": 1236,
      "Ġask": 1237,
      "ĠJust": 1238,
      "Ġdrink": 1239,
      "ember": 1240,
      "ĠMex": 1241,
      "gl": 1242,
      "mas": 1243,
      "Ġour": 1244,
      "inking": 1245,
      "Ġthose": 1246,
      "Ġuntil": 1247,
      "body": 1248,
      "wer": 1249,
      "ward": 1250,
      "Ġsame": 1251,
      "Who": 1252,
      "Ġ:": 1253,
      "ush": 1254,
      "ont": 1255,
      "Ġhor": 1256,
      "arm": 1257,
      "Ġmakes": 1258,
      "AT": 1259,
      "Ġgonna": 1260,
      "ĠWh": 1261,
      "umber": 1262,
      "ĠGod": 1263,
      "Ġwee": 1264,
      "Ġscrew": 1265,
      "izza": 1266,
      "gg": 1267,
      "ix": 1268,
      "lp": 1269,
      "ient": 1270,
      "sid": 1271,
      "Ġsing": 1272,
      "ates": 1273,
      "Ġbed": 1274,
      "AN": 1275,
      "Two": 1276,
      "ĠBr": 1277,
      "Ġrel": 1278,
      "Ġknock": 1279,
      "Ġthrough": 1280,
      "Me": 1281,
      "ier": 1282,
      "Ġu": 1283,
      "Ġdri": 1284,
      "Ġpull": 1285,
      "ĠCan": 1286,
      "ful": 1287,
      "Ġ8": 1288,
      "Ġtrying": 1289,
      "red": 1290,
      "ama": 1291,
      "Ġmid": 1292,
      "Ġdick": 1293,
      "Ġsmall": 1294,
      "Ġsecond": 1295,
      "ves": 1296,
      "Ġanother": 1297,
      "acher": 1298,
      "Ġdrive": 1299,
      "Ġfriends": 1300,
      "Ġtalk": 1301,
      "ike": 1302,
      "Ġcool": 1303,
      "Ġbulb": 1304,
      "Ġdin": 1305,
      "Ġhum": 1306,
      "oh": 1307,
      "Ġcount": 1308,
      "Ġfull": 1309,
      "Ġisn": 1310,
      "old": 1311,
      "Ġsound": 1312,
      "ork": 1313,
      "ets": 1314,
      "Ġanything": 1315,
      "Ġproble": 1316,
      "Ġprobably": 1317,
      "Ġbelieve": 1318,
      "Ġcre": 1319,
      "Ġgre": 1320,
      "Ġhelp": 1321,
      "Ġcoff": 1322,
      "Ġroad": 1323,
      "Ġpretty": 1324,
      "bulb": 1325,
      "ys": 1326,
      "Ġpass": 1327,
      "artender": 1328,
      "Ġeating": 1329,
      "orning": 1330,
      "RE": 1331,
      "ats": 1332,
      "ape": 1333,
      "aper": 1334,
      "ĠJesus": 1335,
      "book": 1336,
      "ower": 1337,
      "amed": 1338,
      "abb": 1339,
      "Where": 1340,
      "ball": 1341,
      "Ġ$": 1342,
      "Ġsub": 1343,
      "its": 1344,
      "ma": 1345,
      "ped": 1346,
      "so": 1347,
      "ott": 1348,
      "alf": 1349,
      "In": 1350,
      "Ġcop": 1351,
      "Ġdie": 1352,
      "what": 1353,
      "Ġhair": 1354,
      "\"\".\"": 1355,
      "ote": 1356,
      "upid": 1357,
      "Ġwhich": 1358,
      "ĠChristmas": 1359,
      "ON": 1360,
      "ib": 1361,
      "stand": 1362,
      "Ġcho": 1363,
      "itter": 1364,
      "Ġlightbulb": 1365,
      "band": 1366,
      "ding": 1367,
      "iv": 1368,
      "Ġmorning": 1369,
      "ĠThere": 1370,
      "ĠFr": 1371,
      "Ġspe": 1372,
      "Ġmovie": 1373,
      "Ġtalking": 1374,
      "Ġfamily": 1375,
      "Ġap": 1376,
      "sian": 1377,
      "cept": 1378,
      "ĠUn": 1379,
      "Ġlooks": 1380,
      "Ġlegs": 1381,
      "oes": 1382,
      "ric": 1383,
      "Ġac": 1384,
      "anna": 1385,
      "Ġmaking": 1386,
      "usband": 1387,
      "orm": 1388,
      "Ġchar": 1389,
      "Ġcomes": 1390,
      "EE": 1391,
      "oll": 1392,
      "Ġent": 1393,
      "Ġhands": 1394,
      "Ġfucking": 1395,
      "Ġpenis": 1396,
      "bo": 1397,
      "Ġtried": 1398,
      "Ġmother": 1399,
      "Ġhour": 1400,
      "arn": 1401,
      "vers": 1402,
      "Ġbreak": 1403,
      "sident": 1404,
      "eah": 1405,
      "ror": 1406,
      "ane": 1407,
      "Ġcare": 1408,
      "Ġpost": 1409,
      "ĠSp": 1410,
      "ĠKnock": 1411,
      "Ġenough": 1412,
      "Ġlooking": 1413,
      "ince": 1414,
      "ĠIr": 1415,
      "Ġpay": 1416,
      "Ġpizza": 1417,
      "Ġste": 1418,
      "Ġleast": 1419,
      "ucks": 1420,
      "Ġbroke": 1421,
      "Ġwonder": 1422,
      "Ġmarried": 1423,
      "ove": 1424,
      "Ġmust": 1425,
      "Ġwind": 1426,
      "Ġbook": 1427,
      "Ġfree": 1428,
      "ret": 1429,
      "Ġlost": 1430,
      "ĠIs": 1431,
      "Ġpri": 1432,
      "icks": 1433,
      "uct": 1434,
      "ĠQ": 1435,
      "Ġmet": 1436,
      "ones": 1437,
      "Ġyell": 1438,
      "Ġtoile": 1439,
      "Ġplease": 1440,
      "ĠAr": 1441,
      "ĠBe": 1442,
      "Ġsaying": 1443,
      "Ġside": 1444,
      "Ġtast": 1445,
      "anc": 1446,
      "Ġmouth": 1447,
      "key": 1448,
      "Ġbody": 1449,
      "Ġpar": 1450,
      "irth": 1451,
      "Ġstupid": 1452,
      "Ġseen": 1453,
      "Ġnothing": 1454,
      "ize": 1455,
      "ude": 1456,
      "Ġcow": 1457,
      "Ġbartender": 1458,
      "Ġfish": 1459,
      "ings": 1460,
      "Ġel": 1461,
      "Ġrep": 1462,
      "ians": 1463,
      "Ġaccident": 1464,
      "IS": 1465,
      "cle": 1466,
      "ym": 1467,
      "Ġbit": 1468,
      "Ġbath": 1469,
      "Ġfast": 1470,
      "oop": 1471,
      "ĠWell": 1472,
      "urb": 1473,
      "ĠNow": 1474,
      "Ġguess": 1475,
      "Ġcoffee": 1476,
      "eople": 1477,
      "Ġter": 1478,
      "ason": 1479,
      "Ġwants": 1480,
      "Ġvi": 1481,
      "Ġhold": 1482,
      "Knock": 1483,
      "gr": 1484,
      "ual": 1485,
      "Ġmay": 1486,
      "Ġwin": 1487,
      "ots": 1488,
      "gan": 1489,
      "Ġide": 1490,
      "erman": 1491,
      "Ġfar": 1492,
      "Ġdoll": 1493,
      "ĠThen": 1494,
      "uring": 1495,
      "ĠGr": 1496,
      "ĠOn": 1497,
      "Ġgirls": 1498,
      "??": 1499,
      "AR": 1500,
      "ten": 1501,
      "sive": 1502,
      "Ġbirth": 1503,
      "ĠChin": 1504,
      "Ġsmell": 1505,
      "ighb": 1506,
      "ING": 1507,
      "ex": 1508,
      "Ġtri": 1509,
      "Ġwall": 1510,
      "Ġbag": 1511,
      "Ġdes": 1512,
      "Ġfly": 1513,
      "Ġfem": 1514,
      "Ġworst": 1515,
      "Ġblow": 1516,
      "Ġblind": 1517,
      "Ġeverything": 1518,
      "ĠThis": 1519,
      "af": 1520,
      "Ġbu": 1521,
      "enc": 1522,
      "Ġgen": 1523,
      "arb": 1524,
      "ĠYour": 1525,
      "gether": 1526,
      "Ġadd": 1527,
      "Ġbox": 1528,
      "\"[": 1529,
      "pr": 1530,
      "Ġfight": 1531,
      "Ġhang": 1532,
      "Ġtogether": 1533,
      "omb": 1534,
      "Ġbeer": 1535,
      "acks": 1536,
      "weet": 1537,
      "Ġtook": 1538,
      "Ġcheck": 1539,
      "ĠYOU": 1540,
      "arently": 1541,
      "Ġtoilet": 1542,
      "11": 1543,
      "An": 1544,
      "ze": 1545,
      "oun": 1546,
      "Ġdate": 1547,
      "orre": 1548,
      "ition": 1549,
      "ĠNew": 1550,
      "Ġfather": 1551,
      "This": 1552,
      "Have": 1553,
      "dle": 1554,
      "swer": 1555,
      "Ġthese": 1556,
      "Ġpun": 1557,
      "Ġparent": 1558,
      "Whats": 1559,
      "oph": 1560,
      "Ġcann": 1561,
      "Ġcoming": 1562,
      "Ġplace": 1563,
      "Ġconf": 1564,
      "Ġgrand": 1565,
      "Ġmiss": 1566,
      "Ġsong": 1567,
      "Ġboo": 1568,
      "Ġbought": 1569,
      "Ġline": 1570,
      "ither": 1571,
      "Ġpot": 1572,
      "Ġpick": 1573,
      "Ġgame": 1574,
      ".....": 1575,
      "Ġok": 1576,
      "ics": 1577,
      "Ġret": 1578,
      "Ġlist": 1579,
      "Ġstud": 1580,
      "acebook": 1581,
      "icture": 1582,
      "Ġeye": 1583,
      ",\"\"": 1584,
      "mp": 1585,
      "ton": 1586,
      "Ġwhe": 1587,
      "Ġhalf": 1588,
      "Ġpos": 1589,
      "Ġpaper": 1590,
      "Ġgave": 1591,
      "amn": 1592,
      "ames": 1593,
      "ester": 1594,
      "Ġunderstand": 1595,
      "ES": 1596,
      "the": 1597,
      "Ġair": 1598,
      "iness": 1599,
      "Ġhusband": 1600,
      "Ġeach": 1601,
      "Ġstore": 1602,
      "Ġneighb": 1603,
      "Ġcond": 1604,
      "Ġletter": 1605,
      "Ġreplied": 1606,
      "Ġinstead": 1607,
      "Ġidea": 1608,
      "OR": 1609,
      "aid": 1610,
      "ches": 1611,
      "Ġtest": 1612,
      "Ġmight": 1613,
      "Ġpain": 1614,
      "Ġear": 1615,
      "ĠBl": 1616,
      "Ġstre": 1617,
      "Ġremember": 1618,
      "Ġsnow": 1619,
      "Ġactually": 1620,
      "aughter": 1621,
      "Ġhorse": 1622,
      "AA": 1623,
      "uce": 1624,
      "ert": 1625,
      "Ġtry": 1626,
      "Ġmus": 1627,
      "ines": 1628,
      "inks": 1629,
      "Ġinside": 1630,
      "Ġnamed": 1631,
      "ips": 1632,
      "plain": 1633,
      "Ġanyone": 1634,
      "Ġdays": 1635,
      "Ġimp": 1636,
      "ĠTHE": 1637,
      "ĠMexican": 1638,
      "Ġproblem": 1639,
      "That": 1640,
      "We": 1641,
      "iec": 1642,
      "Ġmast": 1643,
      "Ġsorry": 1644,
      "onde": 1645,
      "Ġpicture": 1646,
      "Ġbeh": 1647,
      "utes": 1648,
      "Ġwasn": 1649,
      "Ġseem": 1650,
      "Ġexp": 1651,
      "ired": 1652,
      "Ġstarted": 1653,
      "Ġreplies": 1654,
      "St": 1655,
      "ax": 1656,
      "aff": 1657,
      "mon": 1658,
      "Ġtimes": 1659,
      "Ġmed": 1660,
      "rest": 1661,
      "ica": 1662,
      "ĠSc": 1663,
      "illion": 1664,
      "Ġfront": 1665,
      "Ġsign": 1666,
      "Ġquest": 1667,
      "IT": 1668,
      "Some": 1669,
      "gin": 1670,
      "iving": 1671,
      "rr": 1672,
      "Ġjump": 1673,
      "Ġsqu": 1674,
      "Ġfing": 1675,
      "Ġfoot": 1676,
      "ison": 1677,
      "urt": 1678,
      "ĠEn": 1679,
      "ized": 1680,
      "Ġteacher": 1681,
      "Ġeyes": 1682,
      "ged": 1683,
      "Ġaw": 1684,
      "anks": 1685,
      "inc": 1686,
      "Ġtop": 1687,
      "Ġpants": 1688,
      "ĠApp": 1689,
      "els": 1690,
      "ĠRed": 1691,
      "Ġdrug": 1692,
      "ared": 1693,
      "Ġorder": 1694,
      "OOOO": 1695,
      "rench": 1696,
      "Ġchildren": 1697,
      "iet": 1698,
      "ouch": 1699,
      "Ġfour": 1700,
      "Ġlate": 1701,
      "Ġpast": 1702,
      "ung": 1703,
      "Ġnumber": 1704,
      "Ġlaw": 1705,
      "ĠAll": 1706,
      "oof": 1707,
      "Ġyourself": 1708,
      "Ġaren": 1709,
      "ĠOh": 1710,
      "Ġdrunk": 1711,
      "ready": 1712,
      "Ġracist": 1713,
      "orrect": 1714,
      "ef": 1715,
      "eg": 1716,
      "ying": 1717,
      "any": 1718,
      "ism": 1719,
      "Ġnice": 1720,
      "Ġeas": 1721,
      "Ġhell": 1722,
      "ĠHis": 1723,
      "ĠDad": 1724,
      "ipp": 1725,
      "They": 1726,
      "ohn": 1727,
      "bs": 1728,
      "ched": 1729,
      "io": 1730,
      "Ġaf": 1731,
      "eral": 1732,
      "Ġdone": 1733,
      "Ġfell": 1734,
      "Ġporn": 1735,
      "ense": 1736,
      "uter": 1737,
      "Ġresp": 1738,
      "ĠFor": 1739,
      "Ġalready": 1740,
      "Ġtakes": 1741,
      "Ġglass": 1742,
      "TI": 1743,
      "Ġtree": 1744,
      "Ġcour": 1745,
      "\"\".": 1746,
      "Ġanswer": 1747,
      "Ġegg": 1748,
      "allow": 1749,
      "Ġwhole": 1750,
      "ĠRus": 1751,
      "Ġcold": 1752,
      "Ġparty": 1753,
      "Ġweek": 1754,
      "ron": 1755,
      "Ġid": 1756,
      "Ġmil": 1757,
      "sic": 1758,
      "Ġsent": 1759,
      "oked": 1760,
      "Ġbat": 1761,
      "led": 1762,
      "Ġanim": 1763,
      "oman": 1764,
      "eck": 1765,
      "Ġcheese": 1766,
      "ĠDonald": 1767,
      "ĠIrish": 1768,
      "esterday": 1769,
      "aut": 1770,
      "ium": 1771,
      "line": 1772,
      "Ġcol": 1773,
      "Ġang": 1774,
      "akes": 1775,
      "arth": 1776,
      "Ġ12": 1777,
      "ling": 1778,
      "net": 1779,
      "oon": 1780,
      "Ġmir": 1781,
      "Ġsal": 1782,
      "Ġcri": 1783,
      "itler": 1784,
      "Ġyet": 1785,
      "amm": 1786,
      "ams": 1787,
      "ech": 1788,
      "ĠPr": 1789,
      "Ġblonde": 1790,
      "Ġdrop": 1791,
      "Ġclass": 1792,
      "Ġbecome": 1793,
      "Ġelect": 1794,
      "Ġpolice": 1795,
      "Ġmonth": 1796,
      "by": 1797,
      "Ġur": 1798,
      "Ġwish": 1799,
      "Ġbur": 1800,
      "rees": 1801,
      "Ġpop": 1802,
      "Ġgun": 1803,
      "Ġint": 1804,
      "Ġbeat": 1805,
      "ĠFacebook": 1806,
      "ĠOr": 1807,
      "Ġwouldn": 1808,
      "Ġarms": 1809,
      "Ġplaying": 1810,
      "Ġelse": 1811,
      "**": 1812,
      "land": 1813,
      "Ġmeet": 1814,
      "boss": 1815,
      "okes": 1816,
      "Ġcut": 1817,
      "lex": 1818,
      "ically": 1819,
      "icans": 1820,
      "Ġrob": 1821,
      "ĠDr": 1822,
      "Ġwalking": 1823,
      "Ġturns": 1824,
      "Ġthrow": 1825,
      "aught": 1826,
      "Ġbehind": 1827,
      "EN": 1828,
      "Every": 1829,
      "mat": 1830,
      "Ġmind": 1831,
      "Ġsand": 1832,
      "Ġcard": 1833,
      "Ġdress": 1834,
      "Ġdaughter": 1835,
      "res": 1836,
      "ited": 1837,
      "Ġinvent": 1838,
      "Ġoutside": 1839,
      "Ġexc": 1840,
      "Ġminutes": 1841,
      "Ġbathroom": 1842,
      "?\"": 1843,
      "vice": 1844,
      "Ġton": 1845,
      "ouble": 1846,
      "Ġcoup": 1847,
      "ative": 1848,
      "Ġbas": 1849,
      "Ġdep": 1850,
      "Ġbrother": 1851,
      "!!!": 1852,
      "Ġflo": 1853,
      "Ġmove": 1854,
      "orris": 1855,
      "Ġparents": 1856,
      "ness": 1857,
      "Ġcir": 1858,
      "Ġbird": 1859,
      "Ġdel": 1860,
      "Ġpus": 1861,
      "Ġpig": 1862,
      "ided": 1863,
      "Ġlady": 1864,
      "Ġbear": 1865,
      "irt": 1866,
      "rible": 1867,
      "Ġru": 1868,
      "ĠDid": 1869,
      "Ġext": 1870,
      "ney": 1871,
      "Ġfeet": 1872,
      "Ġeleph": 1873,
      "Ġwords": 1874,
      "Ġperf": 1875,
      "Ġhappened": 1876,
      "Ġstreet": 1877,
      "Ġmasturb": 1878,
      "Is": 1879,
      "Ġboss": 1880,
      "Ġmine": 1881,
      "Ġband": 1882,
      "Ġbunch": 1883,
      "Ġduring": 1884,
      "Ġpir": 1885,
      "ised": 1886,
      "ens": 1887,
      "arge": 1888,
      "Ġinv": 1889,
      "ĠTwo": 1890,
      "orth": 1891,
      "ĠAs": 1892,
      "ĠNe": 1893,
      "ĠNorris": 1894,
      "ĠGerman": 1895,
      "ĠJohn": 1896,
      "oday": 1897,
      "Ġclos": 1898,
      "Ġnews": 1899,
      "Ġwatching": 1900,
      "--": 1901,
      "?!": 1902,
      "OW": 1903,
      "Ġten": 1904,
      "Ġmeans": 1905,
      "Ġins": 1906,
      "Ġshop": 1907,
      "iday": 1908,
      "ician": 1909,
      "ĠHer": 1910,
      "ign": 1911,
      "Ġlearn": 1912,
      "Ġdef": 1913,
      "Ġwalked": 1914,
      "Ġgroup": 1915,
      "Ġprost": 1916,
      "raid": 1917,
      "Ġcomputer": 1918,
      "ced": 1919,
      "you": 1920,
      "Ġtaking": 1921,
      "ital": 1922,
      "Ġpiec": 1923,
      "arr": 1924,
      "edding": 1925,
      "ĠMan": 1926,
      "ular": 1927,
      "Ġarrest": 1928,
      "ĠiP": 1929,
      "Ġpoint": 1930,
      "Ġtype": 1931,
      "Ch": 1932,
      "Can": 1933,
      "oe": 1934,
      "atch": 1935,
      "Ġbank": 1936,
      "esb": 1937,
      "omen": 1938,
      "Ġnuts": 1939,
      "aked": 1940,
      "eth": 1941,
      "ĠTw": 1942,
      "right": 1943,
      "Ġres": 1944,
      "Ġreason": 1945,
      "ĠSn": 1946,
      "ĠHitler": 1947,
      "Ġrabb": 1948,
      "Ġalso": 1949,
      "000": 1950,
      "Ġsitting": 1951,
      "Ġafraid": 1952,
      "cum": 1953,
      "ience": 1954,
      "Ġsist": 1955,
      "Ġice": 1956,
      "oud": 1957,
      "Ġstay": 1958,
      "ĠWal": 1959,
      "Ġworse": 1960,
      "Ġblood": 1961,
      "Ġrecent": 1962,
      "Ġwearing": 1963,
      "AS": 1964,
      "Wh": 1965,
      "iot": 1966,
      "head": 1967,
      "Ġcamp": 1968,
      "esc": 1969,
      "ĠAN": 1970,
      "Ġreg": 1971,
      "Ġspend": 1972,
      "Ġcoll": 1973,
      "Ġcatch": 1974,
      "Ġ50": 1975,
      "iously": 1976,
      "Ġbusiness": 1977,
      "Ġhappens": 1978,
      "sych": 1979,
      "Ġdinner": 1980,
      "Ġwindow": 1981,
      "Oh": 1982,
      "__": 1983,
      "ael": 1984,
      "ging": 1985,
      "where": 1986,
      "ern": 1987,
      "Ġburn": 1988,
      "Ġlose": 1989,
      "Ġpub": 1990,
      "ĠTV": 1991,
      "ĠMar": 1992,
      "Ġhaven": 1993,
      "Ġsick": 1994,
      "Ġclub": 1995,
      "udd": 1996,
      "ection": 1997,
      "Ġrunning": 1998,
      "orrow": 1999
    },
    "merges": [
      [
        "č",
        "Ċ"
      ],
      [
        "<",
        "|"
      ],
      [
        "|",
        ">"
      ],
      [
        "Ġ",
        "a"
      ],
      [
        "o",
        "s"
      ],
      [
        "e",
        "r"
      ],
      [
        "Ġ",
        "t"
      ],
      [
        "a",
        "n"
      ],
      [
        "Ġ",
        "m"
      ],
      [
        "s",
        "t"
      ],
      [
        "k",
        "e"
      ],
      [
        "a",
        "s"
      ],
      [
        "h",
        "e"
      ],
      [
        "u",
        "s"
      ],
      [
        "i",
        "n"
      ],
      [
        "Ġm",
        "e"
      ],
      [
        "s",
        "i"
      ],
      [
        "an",
        "t"
      ],
      [
        "si",
        "st"
      ],
      [
        "b",
        "os"
      ],
      [
        "us",
        "er"
      ],
      [
        "e",
        "os"
      ],
      [
        "sist",
        "ant"
      ],
      [
        "as",
        "sistant"
      ],
      [
        "Ġ",
        "j"
      ],
      [
        "l",
        "l"
      ],
      [
        "Ġ",
        "s"
      ],
      [
        "Ġ",
        "w"
      ],
      [
        "o",
        "n"
      ],
      [
        "o",
        "ke"
      ],
      [
        "Ġj",
        "oke"
      ],
      [
        "o",
        "u"
      ],
      [
        "Ġ",
        "c"
      ],
      [
        "Ġt",
        "he"
      ],
      [
        "a",
        "t"
      ],
      [
        "Ġ",
        "b"
      ],
      [
        "Ġ",
        "d"
      ],
      [
        "Ġ",
        "f"
      ],
      [
        "o",
        "r"
      ],
      [
        "v",
        "e"
      ],
      [
        "r",
        "e"
      ],
      [
        "e",
        "ll"
      ],
      [
        "Ġ",
        "l"
      ],
      [
        "Ġ",
        "h"
      ],
      [
        "i",
        "t"
      ],
      [
        "in",
        "g"
      ],
      [
        "T",
        "ell"
      ],
      [
        "\"",
        "\""
      ],
      [
        "l",
        "e"
      ],
      [
        "Ġ",
        "I"
      ],
      [
        "Ġ",
        "y"
      ],
      [
        "Ġt",
        "o"
      ],
      [
        "Ġ",
        "p"
      ],
      [
        "i",
        "s"
      ],
      [
        "Ġy",
        "ou"
      ],
      [
        "e",
        "n"
      ],
      [
        "Ġ",
        "g"
      ],
      [
        "a",
        "r"
      ],
      [
        ".",
        "."
      ],
      [
        "i",
        "ve"
      ],
      [
        "h",
        "at"
      ],
      [
        "Ġ",
        "on"
      ],
      [
        "Ġ",
        "o"
      ],
      [
        "Ġa",
        "n"
      ],
      [
        "G",
        "ive"
      ],
      [
        "e",
        "d"
      ],
      [
        "g",
        "h"
      ],
      [
        "Ġ",
        "in"
      ],
      [
        "e",
        "s"
      ],
      [
        "u",
        "n"
      ],
      [
        "o",
        "m"
      ],
      [
        "o",
        "w"
      ],
      [
        "Ġ",
        "n"
      ],
      [
        "a",
        "ke"
      ],
      [
        "a",
        "y"
      ],
      [
        "Ġs",
        "h"
      ],
      [
        "e",
        "t"
      ],
      [
        "'",
        "s"
      ],
      [
        "Ġd",
        "o"
      ],
      [
        "i",
        "d"
      ],
      [
        "Ġo",
        "f"
      ],
      [
        "i",
        "c"
      ],
      [
        "Ġan",
        "d"
      ],
      [
        "o",
        "t"
      ],
      [
        "Ġon",
        "e"
      ],
      [
        "Ġl",
        "a"
      ],
      [
        "Ġ",
        "T"
      ],
      [
        "Ġt",
        "h"
      ],
      [
        "W",
        "hat"
      ],
      [
        "a",
        "l"
      ],
      [
        "or",
        "t"
      ],
      [
        "Ġb",
        "e"
      ],
      [
        "Ġ",
        "it"
      ],
      [
        "Ġ",
        "is"
      ],
      [
        "n",
        "y"
      ],
      [
        "Ġ",
        "e"
      ],
      [
        "Ġf",
        "un"
      ],
      [
        "Ġ",
        "\"\""
      ],
      [
        "u",
        "gh"
      ],
      [
        "Ġc",
        "le"
      ],
      [
        "a",
        "d"
      ],
      [
        "a",
        "ll"
      ],
      [
        "a",
        "c"
      ],
      [
        "Ġfun",
        "ny"
      ],
      [
        "Ġla",
        "ugh"
      ],
      [
        "Ġcle",
        "an"
      ],
      [
        "Ġsh",
        "ort"
      ],
      [
        "l",
        "d"
      ],
      [
        "Ġ",
        "A"
      ],
      [
        "M",
        "ake"
      ],
      [
        "i",
        "r"
      ],
      [
        "'",
        "t"
      ],
      [
        "Ġm",
        "y"
      ],
      [
        "..",
        "."
      ],
      [
        "u",
        "t"
      ],
      [
        "ou",
        "t"
      ],
      [
        "o",
        "o"
      ],
      [
        "v",
        "er"
      ],
      [
        "r",
        "i"
      ],
      [
        "Ġ",
        "B"
      ],
      [
        "Ġ",
        "re"
      ],
      [
        "Ġ",
        "S"
      ],
      [
        "Ġl",
        "i"
      ],
      [
        "Ġ",
        "he"
      ],
      [
        "Ġ",
        "st"
      ],
      [
        "a",
        "m"
      ],
      [
        "a",
        "ve"
      ],
      [
        "h",
        "er"
      ],
      [
        "Ġw",
        "as"
      ],
      [
        "Ġ",
        "M"
      ],
      [
        "Ġf",
        "or"
      ],
      [
        "i",
        "f"
      ],
      [
        "o",
        "p"
      ],
      [
        "i",
        "m"
      ],
      [
        "Ġ",
        "H"
      ],
      [
        "l",
        "y"
      ],
      [
        "Ġ",
        "k"
      ],
      [
        "it",
        "h"
      ],
      [
        "Ġt",
        "hat"
      ],
      [
        "h",
        "y"
      ],
      [
        "Ġw",
        "ith"
      ],
      [
        "e",
        "c"
      ],
      [
        "Ġ",
        "W"
      ],
      [
        "Ġ",
        "r"
      ],
      [
        "en",
        "t"
      ],
      [
        "us",
        "e"
      ],
      [
        "he",
        "n"
      ],
      [
        "Ġh",
        "ave"
      ],
      [
        "Ġ",
        "C"
      ],
      [
        "u",
        "st"
      ],
      [
        "u",
        "r"
      ],
      [
        "gh",
        "t"
      ],
      [
        "c",
        "h"
      ],
      [
        "u",
        "p"
      ],
      [
        "\"\"",
        "\""
      ],
      [
        "Ġli",
        "ke"
      ],
      [
        "h",
        "o"
      ],
      [
        "Ġc",
        "an"
      ],
      [
        "Ġyou",
        "r"
      ],
      [
        "c",
        "e"
      ],
      [
        "c",
        "k"
      ],
      [
        "ĠT",
        "he"
      ],
      [
        "i",
        "on"
      ],
      [
        "Ġa",
        "re"
      ],
      [
        "Ġ",
        "D"
      ],
      [
        "i",
        "ll"
      ],
      [
        "Ġa",
        "t"
      ],
      [
        "Ġd",
        "id"
      ],
      [
        "Ġs",
        "ay"
      ],
      [
        "on",
        "e"
      ],
      [
        "Ġa",
        "s"
      ],
      [
        "om",
        "e"
      ],
      [
        "t",
        "er"
      ],
      [
        "Ġn",
        "e"
      ],
      [
        "ou",
        "ld"
      ],
      [
        "en",
        "d"
      ],
      [
        "Ġg",
        "et"
      ],
      [
        "e",
        "l"
      ],
      [
        "u",
        "m"
      ],
      [
        "W",
        "hy"
      ],
      [
        "an",
        "d"
      ],
      [
        "er",
        "e"
      ],
      [
        "a",
        "use"
      ],
      [
        "Ġc",
        "all"
      ],
      [
        "Ġ",
        "P"
      ],
      [
        "Ġ",
        "out"
      ],
      [
        "Ġthe",
        "y"
      ],
      [
        "'",
        "m"
      ],
      [
        "Ġw",
        "hen"
      ],
      [
        "Ġs",
        "e"
      ],
      [
        "Ġa",
        "b"
      ],
      [
        "Ġ",
        "N"
      ],
      [
        "a",
        "p"
      ],
      [
        "k",
        "s"
      ],
      [
        "Ġs",
        "o"
      ],
      [
        "r",
        "o"
      ],
      [
        "Ġk",
        "n"
      ],
      [
        "Ġg",
        "o"
      ],
      [
        "g",
        "e"
      ],
      [
        "Ġ",
        "G"
      ],
      [
        "Ġm",
        "an"
      ],
      [
        "Ġj",
        "ust"
      ],
      [
        "Ġ",
        "up"
      ],
      [
        "Ġh",
        "is"
      ],
      [
        "Ġab",
        "out"
      ],
      [
        "ar",
        "t"
      ],
      [
        "er",
        "s"
      ],
      [
        "Ġb",
        "ut"
      ],
      [
        "n",
        "d"
      ],
      [
        "Ġc",
        "h"
      ],
      [
        "a",
        "b"
      ],
      [
        "ac",
        "k"
      ],
      [
        "Ġd",
        "on"
      ],
      [
        "Ġ",
        "F"
      ],
      [
        "i",
        "l"
      ],
      [
        "Ġw",
        "e"
      ],
      [
        "Y",
        "ou"
      ],
      [
        "Ġ",
        "J"
      ],
      [
        "ar",
        "d"
      ],
      [
        "i",
        "st"
      ],
      [
        "at",
        "e"
      ],
      [
        "Ġn",
        "ot"
      ],
      [
        "Ġw",
        "or"
      ],
      [
        "Ġdo",
        "es"
      ],
      [
        "r",
        "y"
      ],
      [
        "Ġ",
        "O"
      ],
      [
        "k",
        "ing"
      ],
      [
        "i",
        "e"
      ],
      [
        "Ġs",
        "a"
      ],
      [
        "o",
        "l"
      ],
      [
        "all",
        "y"
      ],
      [
        "Ġp",
        "e"
      ],
      [
        "Ġf",
        "r"
      ],
      [
        "Ġkn",
        "ow"
      ],
      [
        "Ġw",
        "ho"
      ],
      [
        "or",
        "e"
      ],
      [
        "Ġh",
        "er"
      ],
      [
        "a",
        "st"
      ],
      [
        "in",
        "d"
      ],
      [
        "c",
        "t"
      ],
      [
        "ĠI",
        "t"
      ],
      [
        "oo",
        "d"
      ],
      [
        "u",
        "l"
      ],
      [
        "Ġc",
        "om"
      ],
      [
        "e",
        "p"
      ],
      [
        "Ġth",
        "is"
      ],
      [
        "t",
        "o"
      ],
      [
        "H",
        "ow"
      ],
      [
        "Ġa",
        "ll"
      ],
      [
        "ver",
        "y"
      ],
      [
        "op",
        "le"
      ],
      [
        "w",
        "e"
      ],
      [
        "Ġb",
        "l"
      ],
      [
        "Ġs",
        "he"
      ],
      [
        "Ġ",
        "R"
      ],
      [
        "ĠH",
        "e"
      ],
      [
        "'",
        "re"
      ],
      [
        "a",
        "in"
      ],
      [
        "M",
        "y"
      ],
      [
        "n",
        "t"
      ],
      [
        "ec",
        "ause"
      ],
      [
        "ir",
        "l"
      ],
      [
        "i",
        "g"
      ],
      [
        "Ġ",
        "L"
      ],
      [
        "Ġa",
        "l"
      ],
      [
        "ri",
        "end"
      ],
      [
        "Ġl",
        "e"
      ],
      [
        "o",
        "d"
      ],
      [
        "u",
        "y"
      ],
      [
        "i",
        "ght"
      ],
      [
        "os",
        "t"
      ],
      [
        "Ġ",
        "if"
      ],
      [
        "ĠB",
        "ecause"
      ],
      [
        "it",
        "e"
      ],
      [
        "Ġpe",
        "ople"
      ],
      [
        "Ġb",
        "et"
      ],
      [
        "Ġ",
        "1"
      ],
      [
        "u",
        "ck"
      ],
      [
        "Ġin",
        "to"
      ],
      [
        "Ġ",
        "E"
      ],
      [
        "Ġfr",
        "om"
      ],
      [
        "Ġw",
        "hat"
      ],
      [
        "am",
        "e"
      ],
      [
        "her",
        "e"
      ],
      [
        "a",
        "v"
      ],
      [
        "in",
        "k"
      ],
      [
        "Ġs",
        "p"
      ],
      [
        "Ġd",
        "r"
      ],
      [
        "Ġw",
        "ant"
      ],
      [
        "h",
        "ing"
      ],
      [
        "s",
        "e"
      ],
      [
        "a",
        "re"
      ],
      [
        "a",
        "g"
      ],
      [
        "Ġs",
        "ome"
      ],
      [
        ".",
        "\""
      ],
      [
        "e",
        "st"
      ],
      [
        "e",
        "ar"
      ],
      [
        "Ġg",
        "irl"
      ],
      [
        "e",
        "m"
      ],
      [
        "Ġ",
        "un"
      ],
      [
        "ke",
        "d"
      ],
      [
        "Ġp",
        "l"
      ],
      [
        "f",
        "er"
      ],
      [
        "Ġ",
        "si"
      ],
      [
        "in",
        "e"
      ],
      [
        "Ġ",
        "*"
      ],
      [
        "Ġn",
        "o"
      ],
      [
        "ou",
        "nd"
      ],
      [
        "Ġc",
        "on"
      ],
      [
        "Ġ",
        "You"
      ],
      [
        "Ġsa",
        "id"
      ],
      [
        "ic",
        "k"
      ],
      [
        "ow",
        "n"
      ],
      [
        "i",
        "p"
      ],
      [
        "Ġm",
        "ake"
      ],
      [
        "en",
        "ce"
      ],
      [
        "q",
        "u"
      ],
      [
        "on",
        "g"
      ],
      [
        "i",
        "le"
      ],
      [
        "Ġg",
        "ot"
      ],
      [
        "ou",
        "r"
      ],
      [
        "Ġth",
        "ere"
      ],
      [
        "Ġ",
        "or"
      ],
      [
        "Ġe",
        "x"
      ],
      [
        "ic",
        "e"
      ],
      [
        "i",
        "es"
      ],
      [
        "ĠM",
        "e"
      ],
      [
        "Ġw",
        "h"
      ],
      [
        "Ġc",
        "l"
      ],
      [
        "im",
        "e"
      ],
      [
        "w",
        "ay"
      ],
      [
        "t",
        "her"
      ],
      [
        "Ġd",
        "e"
      ],
      [
        "is",
        "h"
      ],
      [
        "if",
        "e"
      ],
      [
        "d",
        "er"
      ],
      [
        "Ġthe",
        "m"
      ],
      [
        "Ġ",
        "v"
      ],
      [
        "Ġt",
        "ake"
      ],
      [
        "oo",
        "k"
      ],
      [
        "o",
        "ck"
      ],
      [
        "Ġw",
        "al"
      ],
      [
        "Ġw",
        "ould"
      ],
      [
        "T",
        "he"
      ],
      [
        "Ġbe",
        "c"
      ],
      [
        "u",
        "re"
      ],
      [
        "Ġof",
        "f"
      ],
      [
        "at",
        "ion"
      ],
      [
        "Ġo",
        "ther"
      ],
      [
        "ĠThe",
        "y"
      ],
      [
        "Ġg",
        "uy"
      ],
      [
        "le",
        "s"
      ],
      [
        "Ġ",
        "..."
      ],
      [
        "Ġh",
        "ad"
      ],
      [
        "Ġa",
        "r"
      ],
      [
        "we",
        "en"
      ],
      [
        "Ġl",
        "o"
      ],
      [
        ".",
        "\"\"\""
      ],
      [
        "Ġw",
        "om"
      ],
      [
        "Ġ",
        "-"
      ],
      [
        "Ġbet",
        "ween"
      ],
      [
        "w",
        "o"
      ],
      [
        "d",
        "e"
      ],
      [
        "Ġd",
        "if"
      ],
      [
        "Ġ",
        "K"
      ],
      [
        "i",
        "an"
      ],
      [
        "Ġ",
        "2"
      ],
      [
        "Ġh",
        "im"
      ],
      [
        "Ġs",
        "c"
      ],
      [
        "Ġh",
        "as"
      ],
      [
        "o",
        "b"
      ],
      [
        "Ġt",
        "r"
      ],
      [
        "Ġt",
        "ime"
      ],
      [
        "Ġe",
        "very"
      ],
      [
        "Ġg",
        "r"
      ],
      [
        "Ġdif",
        "fer"
      ],
      [
        "Ġh",
        "ow"
      ],
      [
        "Ġsay",
        "s"
      ],
      [
        "t",
        "ing"
      ],
      [
        "ac",
        "e"
      ],
      [
        "u",
        "b"
      ],
      [
        "I",
        "f"
      ],
      [
        "Ġb",
        "r"
      ],
      [
        "?",
        "\"\""
      ],
      [
        "os",
        "e"
      ],
      [
        "p",
        "l"
      ],
      [
        "d",
        "ay"
      ],
      [
        "Ġan",
        "y"
      ],
      [
        "i",
        "re"
      ],
      [
        "Ġc",
        "r"
      ],
      [
        "Ġthe",
        "ir"
      ],
      [
        "es",
        "s"
      ],
      [
        "f",
        "f"
      ],
      [
        "Ġb",
        "y"
      ],
      [
        "Ġ",
        "What"
      ],
      [
        "Ġdiffer",
        "ence"
      ],
      [
        "Ġw",
        "ill"
      ],
      [
        "Ġd",
        "ay"
      ],
      [
        "Ġp",
        "re"
      ],
      [
        "Ġhe",
        "ar"
      ],
      [
        "n",
        "e"
      ],
      [
        "re",
        "e"
      ],
      [
        "Ġon",
        "ly"
      ],
      [
        "'",
        "ve"
      ],
      [
        "Ġth",
        "ink"
      ],
      [
        "'",
        "ll"
      ],
      [
        "Ġp",
        "ro"
      ],
      [
        "Ġbec",
        "ause"
      ],
      [
        "Ġc",
        "ould"
      ],
      [
        "Ġb",
        "ar"
      ],
      [
        "b",
        "er"
      ],
      [
        "Ġw",
        "ife"
      ],
      [
        "as",
        "s"
      ],
      [
        "Ġf",
        "e"
      ],
      [
        "Ġt",
        "ell"
      ],
      [
        "ĠC",
        "h"
      ],
      [
        "ap",
        "p"
      ],
      [
        "Ġo",
        "ver"
      ],
      [
        "p",
        "p"
      ],
      [
        "Ġf",
        "riend"
      ],
      [
        "um",
        "p"
      ],
      [
        "o",
        "y"
      ],
      [
        "Ġth",
        "ing"
      ],
      [
        "Ġd",
        "own"
      ],
      [
        "ur",
        "n"
      ],
      [
        "Ġh",
        "o"
      ],
      [
        "i",
        "z"
      ],
      [
        "Ġb",
        "ack"
      ],
      [
        "Ġman",
        "y"
      ],
      [
        "t",
        "h"
      ],
      [
        "an",
        "g"
      ],
      [
        "b",
        "le"
      ],
      [
        "t",
        "s"
      ],
      [
        "..",
        ".."
      ],
      [
        "Ġc",
        "o"
      ],
      [
        "Ġy",
        "ear"
      ],
      [
        "Ġp",
        "r"
      ],
      [
        "Ġs",
        "m"
      ],
      [
        "Ġto",
        "o"
      ],
      [
        "Ġne",
        "ver"
      ],
      [
        "Ġw",
        "ere"
      ],
      [
        "Ġw",
        "at"
      ],
      [
        "u",
        "d"
      ],
      [
        "oo",
        "l"
      ],
      [
        "Ġ",
        "us"
      ],
      [
        "Ġne",
        "w"
      ],
      [
        "Ġse",
        "e"
      ],
      [
        "Ġg",
        "ood"
      ],
      [
        "Ġgo",
        "ing"
      ],
      [
        "Ġr",
        "o"
      ],
      [
        "f",
        "ter"
      ],
      [
        "an",
        "s"
      ],
      [
        "Ġc",
        "he"
      ],
      [
        "Ġn",
        "ow"
      ],
      [
        "u",
        "g"
      ],
      [
        "!",
        "!"
      ],
      [
        "Ġc",
        "ar"
      ],
      [
        "a",
        "ge"
      ],
      [
        "Ġt",
        "e"
      ],
      [
        "ot",
        "her"
      ],
      [
        "ir",
        "st"
      ],
      [
        "u",
        "ll"
      ],
      [
        "Ġre",
        "ally"
      ],
      [
        "Ġe",
        "at"
      ],
      [
        "or",
        "n"
      ],
      [
        "el",
        "f"
      ],
      [
        "o",
        "us"
      ],
      [
        "re",
        "at"
      ],
      [
        "Ġ",
        "i"
      ],
      [
        "e",
        "w"
      ],
      [
        "id",
        "e"
      ],
      [
        "t",
        "y"
      ],
      [
        "Ġbe",
        "en"
      ],
      [
        "o",
        "g"
      ],
      [
        "Ġ",
        "Y"
      ],
      [
        "Ġdo",
        "g"
      ],
      [
        "way",
        "s"
      ],
      [
        "Ġsh",
        "ould"
      ],
      [
        "ou",
        "gh"
      ],
      [
        "as",
        "e"
      ],
      [
        "'",
        "d"
      ],
      [
        "Ġt",
        "wo"
      ],
      [
        "ad",
        "e"
      ],
      [
        "r",
        "a"
      ],
      [
        ".",
        "\"\""
      ],
      [
        "Ġto",
        "ld"
      ],
      [
        "m",
        "er"
      ],
      [
        "f",
        "riend"
      ],
      [
        "s",
        "s"
      ],
      [
        "ic",
        "h"
      ],
      [
        "Ġse",
        "x"
      ],
      [
        "os",
        "s"
      ],
      [
        "Ġ",
        "'"
      ],
      [
        "Ġthe",
        "n"
      ],
      [
        "Ġf",
        "av"
      ],
      [
        "Ġ",
        "ri"
      ],
      [
        "Ġk",
        "id"
      ],
      [
        "u",
        "ch"
      ],
      [
        "Ġ",
        "U"
      ],
      [
        "ac",
        "h"
      ],
      [
        "ec",
        "t"
      ],
      [
        "t",
        "le"
      ],
      [
        "Ġa",
        "g"
      ],
      [
        "Ġf",
        "l"
      ],
      [
        "Ġas",
        "ked"
      ],
      [
        "Ġal",
        "ways"
      ],
      [
        "Ġlo",
        "ve"
      ],
      [
        "a",
        "ir"
      ],
      [
        "ve",
        "n"
      ],
      [
        "ou",
        "ght"
      ],
      [
        "a",
        "k"
      ],
      [
        "c",
        "c"
      ],
      [
        "Ġm",
        "o"
      ],
      [
        "Ġli",
        "ght"
      ],
      [
        "m",
        "an"
      ],
      [
        "Ġ",
        "ke"
      ],
      [
        "Ġo",
        "ld"
      ],
      [
        "Ġ",
        "3"
      ],
      [
        "Ġd",
        "i"
      ],
      [
        "on",
        "d"
      ],
      [
        "a",
        "h"
      ],
      [
        "i",
        "gh"
      ],
      [
        "ĠB",
        "ut"
      ],
      [
        "Ġne",
        "ed"
      ],
      [
        "Ġf",
        "irst"
      ],
      [
        "Ġsome",
        "one"
      ],
      [
        "Ġth",
        "an"
      ],
      [
        "Ġa",
        "fter"
      ],
      [
        "g",
        "et"
      ],
      [
        "ĠS",
        "t"
      ],
      [
        "ĠS",
        "o"
      ],
      [
        "Ġa",
        "m"
      ],
      [
        "D",
        "id"
      ],
      [
        "Ġm",
        "ore"
      ],
      [
        "Ġ",
        "qu"
      ],
      [
        "Ġw",
        "r"
      ],
      [
        "ĠT",
        "h"
      ],
      [
        "f",
        "e"
      ],
      [
        "i",
        "ld"
      ],
      [
        "Ġbl",
        "ack"
      ],
      [
        "p",
        "t"
      ],
      [
        "Ġdid",
        "n"
      ],
      [
        "Ġp",
        "ut"
      ],
      [
        "Ġpl",
        "ay"
      ],
      [
        "ar",
        "y"
      ],
      [
        "0",
        "0"
      ],
      [
        "Ġw",
        "ay"
      ],
      [
        "s",
        "elf"
      ],
      [
        "n",
        "a"
      ],
      [
        "u",
        "e"
      ],
      [
        "Ġw",
        "hy"
      ],
      [
        "it",
        "y"
      ],
      [
        "ĠS",
        "he"
      ],
      [
        "e",
        "e"
      ],
      [
        "Ġwor",
        "k"
      ],
      [
        "Ġcom",
        "m"
      ],
      [
        "f",
        "ore"
      ],
      [
        "Ġ",
        "&"
      ],
      [
        "Ġc",
        "at"
      ],
      [
        "Ġe",
        "ver"
      ],
      [
        "Ġwom",
        "an"
      ],
      [
        "Ġ",
        "["
      ],
      [
        "Ġw",
        "on"
      ],
      [
        "Ġp",
        "h"
      ],
      [
        "Ġb",
        "ab"
      ],
      [
        "om",
        "et"
      ],
      [
        "v",
        "ing"
      ],
      [
        "Ġ",
        "en"
      ],
      [
        "Ġ",
        "("
      ],
      [
        "ot",
        "h"
      ],
      [
        "Ġst",
        "art"
      ],
      [
        "Ġfav",
        "or"
      ],
      [
        "ct",
        "or"
      ],
      [
        "Ġm",
        "ar"
      ],
      [
        "Ġto",
        "day"
      ],
      [
        "Ġwom",
        "en"
      ],
      [
        "a",
        "king"
      ],
      [
        "Ġh",
        "and"
      ],
      [
        "at",
        "h"
      ],
      [
        "Ġfavor",
        "ite"
      ],
      [
        "ri",
        "ed"
      ],
      [
        "Ġst",
        "op"
      ],
      [
        "he",
        "s"
      ],
      [
        "ac",
        "t"
      ],
      [
        "o",
        "c"
      ],
      [
        "od",
        "y"
      ],
      [
        "Ġd",
        "is"
      ],
      [
        "an",
        "ge"
      ],
      [
        "Ġm",
        "uch"
      ],
      [
        "Ġwal",
        "ks"
      ],
      [
        "Ġa",
        "d"
      ],
      [
        "Ġbe",
        "fore"
      ],
      [
        "Ġdoes",
        "n"
      ],
      [
        "Ġgirl",
        "friend"
      ],
      [
        "x",
        "t"
      ],
      [
        "Ġp",
        "art"
      ],
      [
        "Ġla",
        "st"
      ],
      [
        "E",
        "R"
      ],
      [
        "d",
        "it"
      ],
      [
        "Ġri",
        "ght"
      ],
      [
        "Ġn",
        "ight"
      ],
      [
        "Ġli",
        "fe"
      ],
      [
        "!",
        "\"\""
      ],
      [
        "a",
        "it"
      ],
      [
        "Ġl",
        "it"
      ],
      [
        "Ġ",
        "im"
      ],
      [
        "Ġcall",
        "ed"
      ],
      [
        "W",
        "hen"
      ],
      [
        "t",
        "hing"
      ],
      [
        "Ġ",
        "5"
      ],
      [
        "am",
        "p"
      ],
      [
        "at",
        "ing"
      ],
      [
        "Ġg",
        "ive"
      ],
      [
        "w",
        "n"
      ],
      [
        "ab",
        "le"
      ],
      [
        "ou",
        "nt"
      ],
      [
        "ar",
        "s"
      ],
      [
        "ĠA",
        "nd"
      ],
      [
        "Ġt",
        "urn"
      ],
      [
        "Ġm",
        "ade"
      ],
      [
        "f",
        "t"
      ],
      [
        "Ġh",
        "ere"
      ],
      [
        "Ġbe",
        "st"
      ],
      [
        "Ġ",
        "!"
      ],
      [
        "Ġt",
        "al"
      ],
      [
        "av",
        "ing"
      ],
      [
        "O",
        "O"
      ],
      [
        "Ġsh",
        "ow"
      ],
      [
        "Ġf",
        "at"
      ],
      [
        "ers",
        "on"
      ],
      [
        "Ġfe",
        "el"
      ],
      [
        "Ġcom",
        "p"
      ],
      [
        "ul",
        "b"
      ],
      [
        "Ġun",
        "der"
      ],
      [
        "m",
        "ent"
      ],
      [
        "Ġl",
        "et"
      ],
      [
        "Ġh",
        "app"
      ],
      [
        "Ġth",
        "r"
      ],
      [
        "Ġbe",
        "ing"
      ],
      [
        "Ġ",
        "?"
      ],
      [
        "Ġf",
        "uck"
      ],
      [
        "Ġsh",
        "it"
      ],
      [
        "is",
        "s"
      ],
      [
        "Ġw",
        "ent"
      ],
      [
        "Ġl",
        "ong"
      ],
      [
        "Ġn",
        "ame"
      ],
      [
        "Ġ",
        "V"
      ],
      [
        "ic",
        "an"
      ],
      [
        "Ġs",
        "l"
      ],
      [
        "Ġb",
        "ad"
      ],
      [
        "p",
        "h"
      ],
      [
        "ic",
        "t"
      ],
      [
        "t",
        "e"
      ],
      [
        "Ġm",
        "ost"
      ],
      [
        "he",
        "d"
      ],
      [
        "Ġre",
        "al"
      ],
      [
        "Ġc",
        "ome"
      ],
      [
        "at",
        "ed"
      ],
      [
        "i",
        "al"
      ],
      [
        "in",
        "t"
      ],
      [
        "ry",
        "ing"
      ],
      [
        "a",
        "il"
      ],
      [
        "Ġsc",
        "re"
      ],
      [
        "Ġw",
        "here"
      ],
      [
        "or",
        "d"
      ],
      [
        "Ġbab",
        "y"
      ],
      [
        "s",
        "h"
      ],
      [
        "Ġb",
        "o"
      ],
      [
        "re",
        "ss"
      ],
      [
        "ĠI",
        "n"
      ],
      [
        "ĠT",
        "r"
      ],
      [
        "Ġr",
        "un"
      ],
      [
        "Ġb",
        "ig"
      ],
      [
        "Ġst",
        "ill"
      ],
      [
        "Ġk",
        "ill"
      ],
      [
        "Ġ",
        "9"
      ],
      [
        "Ġh",
        "ome"
      ],
      [
        "ri",
        "st"
      ],
      [
        "Ġb",
        "re"
      ],
      [
        "Ġas",
        "s"
      ],
      [
        "Ġl",
        "oo"
      ],
      [
        "Ġl",
        "ook"
      ],
      [
        "Ġm",
        "om"
      ],
      [
        "Ġke",
        "ep"
      ],
      [
        "a",
        "le"
      ],
      [
        "es",
        "e"
      ],
      [
        "n",
        "ock"
      ],
      [
        "Ġp",
        "en"
      ],
      [
        "Ġlit",
        "tle"
      ],
      [
        "e",
        "y"
      ],
      [
        "Ġf",
        "ind"
      ],
      [
        "or",
        "s"
      ],
      [
        "Ġp",
        "erson"
      ],
      [
        "is",
        "e"
      ],
      [
        "ĠN",
        "o"
      ],
      [
        "an",
        "k"
      ],
      [
        "Ġh",
        "ard"
      ],
      [
        "p",
        "er"
      ],
      [
        "re",
        "n"
      ],
      [
        "ic",
        "ke"
      ],
      [
        "ĠT",
        "hat"
      ],
      [
        "Ġ",
        "use"
      ],
      [
        "Ġa",
        "cc"
      ],
      [
        "on",
        "s"
      ],
      [
        "Ġl",
        "ot"
      ],
      [
        "Ġwat",
        "ch"
      ],
      [
        "p",
        "en"
      ],
      [
        "Ġ",
        "4"
      ],
      [
        "an",
        "ce"
      ],
      [
        "ĠO",
        "ne"
      ],
      [
        "Ġyear",
        "s"
      ],
      [
        "I",
        "t"
      ],
      [
        "v",
        "ie"
      ],
      [
        "!",
        "\"\"\""
      ],
      [
        "Ġwal",
        "k"
      ],
      [
        "Ġag",
        "ain"
      ],
      [
        "S",
        "o"
      ],
      [
        "one",
        "y"
      ],
      [
        "Ġcr",
        "oss"
      ],
      [
        "ou",
        "p"
      ],
      [
        "?",
        "\"\"\""
      ],
      [
        "ĠW",
        "hy"
      ],
      [
        "er",
        "m"
      ],
      [
        "Ġs",
        "omet"
      ],
      [
        "Ġp",
        "o"
      ],
      [
        "les",
        "s"
      ],
      [
        "i",
        "a"
      ],
      [
        "un",
        "ch"
      ],
      [
        "ĠD",
        "o"
      ],
      [
        "are",
        "nt"
      ],
      [
        "Ġme",
        "n"
      ],
      [
        "Ġjoke",
        "s"
      ],
      [
        "Ġre",
        "pl"
      ],
      [
        "Ġle",
        "g"
      ],
      [
        "g",
        "er"
      ],
      [
        "si",
        "de"
      ],
      [
        "Ġe",
        "le"
      ],
      [
        "Ġre",
        "m"
      ],
      [
        "D",
        "o"
      ],
      [
        "a",
        "z"
      ],
      [
        "or",
        "ry"
      ],
      [
        "ĠI",
        "f"
      ],
      [
        "Ġth",
        "ought"
      ],
      [
        "ĠD",
        "on"
      ],
      [
        "Ġre",
        "d"
      ],
      [
        "Ġhe",
        "ard"
      ],
      [
        "ĠM",
        "y"
      ],
      [
        "Ġar",
        "ound"
      ],
      [
        "y",
        "p"
      ],
      [
        "Ġs",
        "ec"
      ],
      [
        "Ġho",
        "use"
      ],
      [
        "Ġs",
        "n"
      ],
      [
        "Ġwh",
        "ile"
      ],
      [
        "^",
        "^"
      ],
      [
        "g",
        "n"
      ],
      [
        "Ġch",
        "ild"
      ],
      [
        "e",
        "ver"
      ],
      [
        "a",
        "w"
      ],
      [
        "Ġa",
        "pp"
      ],
      [
        "Ġg",
        "reat"
      ],
      [
        "d",
        "y"
      ],
      [
        "Ġb",
        "oth"
      ],
      [
        "Ġe",
        "y"
      ],
      [
        "u",
        "c"
      ],
      [
        "Ġ",
        "."
      ],
      [
        "ar",
        "k"
      ],
      [
        "i",
        "ly"
      ],
      [
        "Ġj",
        "ob"
      ],
      [
        "Ġh",
        "ate"
      ],
      [
        "Ġg",
        "u"
      ],
      [
        "Ġbe",
        "l"
      ],
      [
        "ĠA",
        "n"
      ],
      [
        "Ġch",
        "ange"
      ],
      [
        "Ġwor",
        "d"
      ],
      [
        "Ġb",
        "oy"
      ],
      [
        "ir",
        "d"
      ],
      [
        "Ġp",
        "er"
      ],
      [
        "u",
        "ally"
      ],
      [
        "le",
        "ase"
      ],
      [
        "Ġhe",
        "ad"
      ],
      [
        "le",
        "ep"
      ],
      [
        "Ġon",
        "ce"
      ],
      [
        "Ġwor",
        "ld"
      ],
      [
        "n",
        "ing"
      ],
      [
        "Ġh",
        "aving"
      ],
      [
        "Ġe",
        "ven"
      ],
      [
        "i",
        "ous"
      ],
      [
        "ĠW",
        "e"
      ],
      [
        "Ġas",
        "ks"
      ],
      [
        "Ġcomm",
        "on"
      ],
      [
        "Ġg",
        "ay"
      ],
      [
        "Ġre",
        "ad"
      ],
      [
        "c",
        "o"
      ],
      [
        "Ġph",
        "one"
      ],
      [
        "ĠTr",
        "ump"
      ],
      [
        "Ġa",
        "ct"
      ],
      [
        "ĠH",
        "ow"
      ],
      [
        "I",
        "N"
      ],
      [
        "m",
        "e"
      ],
      [
        "Ġs",
        "w"
      ],
      [
        "or",
        "y"
      ],
      [
        "Ġp",
        "ol"
      ],
      [
        "Ġst",
        "and"
      ],
      [
        "ion",
        "s"
      ],
      [
        "ist",
        "s"
      ],
      [
        "Ġsa",
        "w"
      ],
      [
        "Ġwant",
        "ed"
      ],
      [
        "Ġw",
        "ait"
      ],
      [
        "Ġb",
        "us"
      ],
      [
        "Ġf",
        "ound"
      ],
      [
        "Ġcould",
        "n"
      ],
      [
        "Ġus",
        "ed"
      ],
      [
        "Ġkid",
        "s"
      ],
      [
        "a",
        "ugh"
      ],
      [
        "o",
        "ot"
      ],
      [
        "Ġget",
        "ting"
      ],
      [
        "Ġd",
        "ad"
      ],
      [
        "Ġ",
        "very"
      ],
      [
        "si",
        "on"
      ],
      [
        "ant",
        "s"
      ],
      [
        "Ġc",
        "ame"
      ],
      [
        "ĠW",
        "hen"
      ],
      [
        "Ġne",
        "xt"
      ],
      [
        "Ġguy",
        "s"
      ],
      [
        "Ġhapp",
        "en"
      ],
      [
        "Ġsomet",
        "hing"
      ],
      [
        "T",
        "h"
      ],
      [
        "T",
        "here"
      ],
      [
        "Ġo",
        "wn"
      ],
      [
        "Ġ",
        "6"
      ],
      [
        "ro",
        "om"
      ],
      [
        "Ġre",
        "c"
      ],
      [
        "ch",
        "ool"
      ],
      [
        "s",
        "p"
      ],
      [
        "Ġit",
        "s"
      ],
      [
        "Ġ1",
        "0"
      ],
      [
        "Ġpre",
        "t"
      ],
      [
        "Ġthing",
        "s"
      ],
      [
        "ke",
        "t"
      ],
      [
        "Ġevery",
        "one"
      ],
      [
        "Ġg",
        "l"
      ],
      [
        "Ġdo",
        "ctor"
      ],
      [
        "p",
        "ort"
      ],
      [
        "Ġh",
        "ot"
      ],
      [
        "op",
        "e"
      ],
      [
        "Ġat",
        "t"
      ],
      [
        "Ġwe",
        "ar"
      ],
      [
        "Ġde",
        "ad"
      ],
      [
        "Ġm",
        "in"
      ],
      [
        "Ġs",
        "up"
      ],
      [
        "ow",
        "s"
      ],
      [
        "id",
        "ent"
      ],
      [
        "ut",
        "e"
      ],
      [
        "Ġwh",
        "ite"
      ],
      [
        "Ġ",
        "end"
      ],
      [
        "Ġh",
        "igh"
      ],
      [
        "Ġget",
        "s"
      ],
      [
        "u",
        "ff"
      ],
      [
        "Ġs",
        "er"
      ],
      [
        "im",
        "es"
      ],
      [
        "end",
        "er"
      ],
      [
        "N",
        "o"
      ],
      [
        "m",
        "s"
      ],
      [
        "Ġl",
        "ive"
      ],
      [
        "al",
        "d"
      ],
      [
        "ĠW",
        "ho"
      ],
      [
        "Ġst",
        "r"
      ],
      [
        "ul",
        "t"
      ],
      [
        "Ġwr",
        "ong"
      ],
      [
        "a",
        "ur"
      ],
      [
        "Ġ",
        "7"
      ],
      [
        "Ġa",
        "way"
      ],
      [
        "Ġm",
        "on"
      ],
      [
        "or",
        "r"
      ],
      [
        "Ġin",
        "ter"
      ],
      [
        "Ġ",
        "ve"
      ],
      [
        "es",
        "us"
      ],
      [
        "al",
        "s"
      ],
      [
        "icke",
        "n"
      ],
      [
        "e",
        "ad"
      ],
      [
        "Ġh",
        "it"
      ],
      [
        "ĠT",
        "o"
      ],
      [
        "i",
        "ed"
      ],
      [
        "Ġs",
        "u"
      ],
      [
        "Ġk",
        "ind"
      ],
      [
        "Ġbet",
        "ter"
      ],
      [
        "a",
        "a"
      ],
      [
        "l",
        "er"
      ],
      [
        "st",
        "er"
      ],
      [
        "at",
        "or"
      ],
      [
        "Ġf",
        "all"
      ],
      [
        "re",
        "ad"
      ],
      [
        "in",
        "s"
      ],
      [
        "Ġs",
        "k"
      ],
      [
        "Ġb",
        "uy"
      ],
      [
        "Ġgo",
        "es"
      ],
      [
        "at",
        "her"
      ],
      [
        "Ġf",
        "ace"
      ],
      [
        "ab",
        "ly"
      ],
      [
        "Ġf",
        "ood"
      ],
      [
        "ent",
        "s"
      ],
      [
        "b",
        "e"
      ],
      [
        "at",
        "er"
      ],
      [
        "Ġe",
        "m"
      ],
      [
        "iz",
        "z"
      ],
      [
        "Ġs",
        "chool"
      ],
      [
        "Ġf",
        "am"
      ],
      [
        "ĠM",
        "E"
      ],
      [
        "Ġro",
        "om"
      ],
      [
        "Ġ",
        "z"
      ],
      [
        "Ġf",
        "in"
      ],
      [
        "Ġin",
        "st"
      ],
      [
        "ĠT",
        "H"
      ],
      [
        "Ġle",
        "ave"
      ],
      [
        "Ġcon",
        "t"
      ],
      [
        "ĠCh",
        "rist"
      ],
      [
        "L",
        "L"
      ],
      [
        "b",
        "r"
      ],
      [
        "n",
        "er"
      ],
      [
        "Ġf",
        "ire"
      ],
      [
        "Ġdo",
        "or"
      ],
      [
        "Ġwat",
        "er"
      ],
      [
        "Ġme",
        "an"
      ],
      [
        "Ġo",
        "pen"
      ],
      [
        "ie",
        "ve"
      ],
      [
        "Ġun",
        "t"
      ],
      [
        "J",
        "ust"
      ],
      [
        "c",
        "er"
      ],
      [
        "as",
        "h"
      ],
      [
        "Ġs",
        "ure"
      ],
      [
        "ĠA",
        "mer"
      ],
      [
        "ut",
        "s"
      ],
      [
        "Ġre",
        "st"
      ],
      [
        "H",
        "ey"
      ],
      [
        "Ġm",
        "oney"
      ],
      [
        "Ġs",
        "ur"
      ],
      [
        "on",
        "na"
      ],
      [
        "t",
        "ed"
      ],
      [
        "Ġm",
        "at"
      ],
      [
        "Ġb",
        "all"
      ],
      [
        "Ġd",
        "ec"
      ],
      [
        "ve",
        "nt"
      ],
      [
        "ĠA",
        "l"
      ],
      [
        "Ġr",
        "ac"
      ],
      [
        "Ġle",
        "ft"
      ],
      [
        "O",
        "U"
      ],
      [
        "Ġs",
        "on"
      ],
      [
        "ĠJ",
        "ew"
      ],
      [
        "Ġsi",
        "t"
      ],
      [
        "m",
        "y"
      ],
      [
        "Ġt",
        "w"
      ],
      [
        "Ġs",
        "leep"
      ],
      [
        "o",
        "le"
      ],
      [
        "Ġdo",
        "ing"
      ],
      [
        "ic",
        "al"
      ],
      [
        "ĠC",
        "l"
      ],
      [
        "Ġdi",
        "ed"
      ],
      [
        "Ġt",
        "yp"
      ],
      [
        "Ġin",
        "c"
      ],
      [
        "Ġmy",
        "self"
      ],
      [
        "um",
        "b"
      ],
      [
        "ĠN",
        "ot"
      ],
      [
        "ol",
        "og"
      ],
      [
        "Ġ2",
        "0"
      ],
      [
        "D",
        "on"
      ],
      [
        "l",
        "ic"
      ],
      [
        "Ġw",
        "ell"
      ],
      [
        "Ġth",
        "ree"
      ],
      [
        "out",
        "h"
      ],
      [
        "Ġch",
        "icken"
      ],
      [
        "b",
        "ably"
      ],
      [
        "s",
        "y"
      ],
      [
        "un",
        "k"
      ],
      [
        "ĠS",
        "h"
      ],
      [
        "Ġwith",
        "out"
      ],
      [
        "Ġas",
        "k"
      ],
      [
        "ĠJ",
        "ust"
      ],
      [
        "Ġdr",
        "ink"
      ],
      [
        "em",
        "ber"
      ],
      [
        "ĠMe",
        "x"
      ],
      [
        "g",
        "l"
      ],
      [
        "m",
        "as"
      ],
      [
        "Ġ",
        "our"
      ],
      [
        "in",
        "king"
      ],
      [
        "Ġth",
        "ose"
      ],
      [
        "Ġunt",
        "il"
      ],
      [
        "b",
        "ody"
      ],
      [
        "w",
        "er"
      ],
      [
        "w",
        "ard"
      ],
      [
        "Ġs",
        "ame"
      ],
      [
        "W",
        "ho"
      ],
      [
        "Ġ",
        ":"
      ],
      [
        "us",
        "h"
      ],
      [
        "on",
        "t"
      ],
      [
        "Ġh",
        "or"
      ],
      [
        "ar",
        "m"
      ],
      [
        "Ġmake",
        "s"
      ],
      [
        "A",
        "T"
      ],
      [
        "Ġg",
        "onna"
      ],
      [
        "ĠW",
        "h"
      ],
      [
        "um",
        "ber"
      ],
      [
        "ĠG",
        "od"
      ],
      [
        "Ġwe",
        "e"
      ],
      [
        "Ġscre",
        "w"
      ],
      [
        "izz",
        "a"
      ],
      [
        "g",
        "g"
      ],
      [
        "i",
        "x"
      ],
      [
        "l",
        "p"
      ],
      [
        "i",
        "ent"
      ],
      [
        "si",
        "d"
      ],
      [
        "Ġs",
        "ing"
      ],
      [
        "at",
        "es"
      ],
      [
        "Ġb",
        "ed"
      ],
      [
        "A",
        "N"
      ],
      [
        "T",
        "wo"
      ],
      [
        "ĠB",
        "r"
      ],
      [
        "Ġre",
        "l"
      ],
      [
        "Ġkn",
        "ock"
      ],
      [
        "Ġthr",
        "ough"
      ],
      [
        "M",
        "e"
      ],
      [
        "i",
        "er"
      ],
      [
        "Ġ",
        "u"
      ],
      [
        "Ġd",
        "ri"
      ],
      [
        "Ġp",
        "ull"
      ],
      [
        "ĠC",
        "an"
      ],
      [
        "f",
        "ul"
      ],
      [
        "Ġ",
        "8"
      ],
      [
        "Ġt",
        "rying"
      ],
      [
        "re",
        "d"
      ],
      [
        "am",
        "a"
      ],
      [
        "Ġm",
        "id"
      ],
      [
        "Ġd",
        "ick"
      ],
      [
        "Ġsm",
        "all"
      ],
      [
        "Ġsec",
        "ond"
      ],
      [
        "ve",
        "s"
      ],
      [
        "Ġan",
        "other"
      ],
      [
        "ac",
        "her"
      ],
      [
        "Ġdr",
        "ive"
      ],
      [
        "Ġfriend",
        "s"
      ],
      [
        "Ġtal",
        "k"
      ],
      [
        "i",
        "ke"
      ],
      [
        "Ġc",
        "ool"
      ],
      [
        "Ġb",
        "ulb"
      ],
      [
        "Ġd",
        "in"
      ],
      [
        "Ġh",
        "um"
      ],
      [
        "o",
        "h"
      ],
      [
        "Ġc",
        "ount"
      ],
      [
        "Ġf",
        "ull"
      ],
      [
        "Ġis",
        "n"
      ],
      [
        "o",
        "ld"
      ],
      [
        "Ġs",
        "ound"
      ],
      [
        "or",
        "k"
      ],
      [
        "et",
        "s"
      ],
      [
        "Ġany",
        "thing"
      ],
      [
        "Ġpro",
        "ble"
      ],
      [
        "Ġpro",
        "bably"
      ],
      [
        "Ġbel",
        "ieve"
      ],
      [
        "Ġc",
        "re"
      ],
      [
        "Ġg",
        "re"
      ],
      [
        "Ġhe",
        "lp"
      ],
      [
        "Ġco",
        "ff"
      ],
      [
        "Ġro",
        "ad"
      ],
      [
        "Ġpret",
        "ty"
      ],
      [
        "b",
        "ulb"
      ],
      [
        "y",
        "s"
      ],
      [
        "Ġp",
        "ass"
      ],
      [
        "art",
        "ender"
      ],
      [
        "Ġeat",
        "ing"
      ],
      [
        "orn",
        "ing"
      ],
      [
        "R",
        "E"
      ],
      [
        "at",
        "s"
      ],
      [
        "ap",
        "e"
      ],
      [
        "ap",
        "er"
      ],
      [
        "ĠJ",
        "esus"
      ],
      [
        "b",
        "ook"
      ],
      [
        "ow",
        "er"
      ],
      [
        "am",
        "ed"
      ],
      [
        "ab",
        "b"
      ],
      [
        "W",
        "here"
      ],
      [
        "b",
        "all"
      ],
      [
        "Ġ",
        "$"
      ],
      [
        "Ġs",
        "ub"
      ],
      [
        "it",
        "s"
      ],
      [
        "m",
        "a"
      ],
      [
        "p",
        "ed"
      ],
      [
        "s",
        "o"
      ],
      [
        "ot",
        "t"
      ],
      [
        "al",
        "f"
      ],
      [
        "I",
        "n"
      ],
      [
        "Ġc",
        "op"
      ],
      [
        "Ġd",
        "ie"
      ],
      [
        "w",
        "hat"
      ],
      [
        "Ġh",
        "air"
      ],
      [
        "\"\"",
        ".\""
      ],
      [
        "ot",
        "e"
      ],
      [
        "up",
        "id"
      ],
      [
        "Ġwh",
        "ich"
      ],
      [
        "ĠChrist",
        "mas"
      ],
      [
        "O",
        "N"
      ],
      [
        "i",
        "b"
      ],
      [
        "st",
        "and"
      ],
      [
        "Ġc",
        "ho"
      ],
      [
        "it",
        "ter"
      ],
      [
        "Ġlight",
        "bulb"
      ],
      [
        "b",
        "and"
      ],
      [
        "d",
        "ing"
      ],
      [
        "i",
        "v"
      ],
      [
        "Ġm",
        "orning"
      ],
      [
        "ĠT",
        "here"
      ],
      [
        "ĠF",
        "r"
      ],
      [
        "Ġsp",
        "e"
      ],
      [
        "Ġmo",
        "vie"
      ],
      [
        "Ġtal",
        "king"
      ],
      [
        "Ġfam",
        "ily"
      ],
      [
        "Ġa",
        "p"
      ],
      [
        "si",
        "an"
      ],
      [
        "ce",
        "pt"
      ],
      [
        "ĠU",
        "n"
      ],
      [
        "Ġloo",
        "ks"
      ],
      [
        "Ġleg",
        "s"
      ],
      [
        "o",
        "es"
      ],
      [
        "r",
        "ic"
      ],
      [
        "Ġa",
        "c"
      ],
      [
        "an",
        "na"
      ],
      [
        "Ġm",
        "aking"
      ],
      [
        "us",
        "band"
      ],
      [
        "or",
        "m"
      ],
      [
        "Ġch",
        "ar"
      ],
      [
        "Ġcom",
        "es"
      ],
      [
        "E",
        "E"
      ],
      [
        "o",
        "ll"
      ],
      [
        "Ġ",
        "ent"
      ],
      [
        "Ġhand",
        "s"
      ],
      [
        "Ġfuck",
        "ing"
      ],
      [
        "Ġpen",
        "is"
      ],
      [
        "b",
        "o"
      ],
      [
        "Ġt",
        "ried"
      ],
      [
        "Ġm",
        "other"
      ],
      [
        "Ġh",
        "our"
      ],
      [
        "ar",
        "n"
      ],
      [
        "ver",
        "s"
      ],
      [
        "Ġbre",
        "ak"
      ],
      [
        "sid",
        "ent"
      ],
      [
        "e",
        "ah"
      ],
      [
        "r",
        "or"
      ],
      [
        "an",
        "e"
      ],
      [
        "Ġc",
        "are"
      ],
      [
        "Ġp",
        "ost"
      ],
      [
        "ĠS",
        "p"
      ],
      [
        "ĠK",
        "nock"
      ],
      [
        "Ġen",
        "ough"
      ],
      [
        "Ġloo",
        "king"
      ],
      [
        "in",
        "ce"
      ],
      [
        "ĠI",
        "r"
      ],
      [
        "Ġp",
        "ay"
      ],
      [
        "Ġp",
        "izza"
      ],
      [
        "Ġst",
        "e"
      ],
      [
        "Ġle",
        "ast"
      ],
      [
        "uck",
        "s"
      ],
      [
        "Ġbr",
        "oke"
      ],
      [
        "Ġwon",
        "der"
      ],
      [
        "Ġmar",
        "ried"
      ],
      [
        "o",
        "ve"
      ],
      [
        "Ġm",
        "ust"
      ],
      [
        "Ġw",
        "ind"
      ],
      [
        "Ġb",
        "ook"
      ],
      [
        "Ġf",
        "ree"
      ],
      [
        "re",
        "t"
      ],
      [
        "Ġl",
        "ost"
      ],
      [
        "ĠI",
        "s"
      ],
      [
        "Ġp",
        "ri"
      ],
      [
        "ic",
        "ks"
      ],
      [
        "u",
        "ct"
      ],
      [
        "Ġ",
        "Q"
      ],
      [
        "Ġme",
        "t"
      ],
      [
        "on",
        "es"
      ],
      [
        "Ġy",
        "ell"
      ],
      [
        "Ġto",
        "ile"
      ],
      [
        "Ġp",
        "lease"
      ],
      [
        "ĠA",
        "r"
      ],
      [
        "ĠB",
        "e"
      ],
      [
        "Ġsay",
        "ing"
      ],
      [
        "Ġsi",
        "de"
      ],
      [
        "Ġt",
        "ast"
      ],
      [
        "an",
        "c"
      ],
      [
        "Ġm",
        "outh"
      ],
      [
        "ke",
        "y"
      ],
      [
        "Ġb",
        "ody"
      ],
      [
        "Ġp",
        "ar"
      ],
      [
        "ir",
        "th"
      ],
      [
        "Ġst",
        "upid"
      ],
      [
        "Ġse",
        "en"
      ],
      [
        "Ġnot",
        "hing"
      ],
      [
        "iz",
        "e"
      ],
      [
        "u",
        "de"
      ],
      [
        "Ġc",
        "ow"
      ],
      [
        "Ġb",
        "artender"
      ],
      [
        "Ġf",
        "ish"
      ],
      [
        "ing",
        "s"
      ],
      [
        "Ġe",
        "l"
      ],
      [
        "Ġre",
        "p"
      ],
      [
        "ian",
        "s"
      ],
      [
        "Ġacc",
        "ident"
      ],
      [
        "I",
        "S"
      ],
      [
        "c",
        "le"
      ],
      [
        "y",
        "m"
      ],
      [
        "Ġb",
        "it"
      ],
      [
        "Ġb",
        "ath"
      ],
      [
        "Ġf",
        "ast"
      ],
      [
        "oo",
        "p"
      ],
      [
        "ĠW",
        "ell"
      ],
      [
        "ur",
        "b"
      ],
      [
        "ĠN",
        "ow"
      ],
      [
        "Ġgu",
        "ess"
      ],
      [
        "Ġcoff",
        "ee"
      ],
      [
        "e",
        "ople"
      ],
      [
        "Ġt",
        "er"
      ],
      [
        "as",
        "on"
      ],
      [
        "Ġwant",
        "s"
      ],
      [
        "Ġv",
        "i"
      ],
      [
        "Ġho",
        "ld"
      ],
      [
        "K",
        "nock"
      ],
      [
        "g",
        "r"
      ],
      [
        "u",
        "al"
      ],
      [
        "Ġm",
        "ay"
      ],
      [
        "Ġw",
        "in"
      ],
      [
        "ot",
        "s"
      ],
      [
        "g",
        "an"
      ],
      [
        "Ġ",
        "ide"
      ],
      [
        "er",
        "man"
      ],
      [
        "Ġf",
        "ar"
      ],
      [
        "Ġdo",
        "ll"
      ],
      [
        "ĠT",
        "hen"
      ],
      [
        "ur",
        "ing"
      ],
      [
        "ĠG",
        "r"
      ],
      [
        "ĠO",
        "n"
      ],
      [
        "Ġgirl",
        "s"
      ],
      [
        "?",
        "?"
      ],
      [
        "A",
        "R"
      ],
      [
        "t",
        "en"
      ],
      [
        "si",
        "ve"
      ],
      [
        "Ġb",
        "irth"
      ],
      [
        "ĠCh",
        "in"
      ],
      [
        "Ġsm",
        "ell"
      ],
      [
        "igh",
        "b"
      ],
      [
        "IN",
        "G"
      ],
      [
        "e",
        "x"
      ],
      [
        "Ġt",
        "ri"
      ],
      [
        "Ġw",
        "all"
      ],
      [
        "Ġb",
        "ag"
      ],
      [
        "Ġd",
        "es"
      ],
      [
        "Ġf",
        "ly"
      ],
      [
        "Ġf",
        "em"
      ],
      [
        "Ġwor",
        "st"
      ],
      [
        "Ġbl",
        "ow"
      ],
      [
        "Ġbl",
        "ind"
      ],
      [
        "Ġevery",
        "thing"
      ],
      [
        "ĠTh",
        "is"
      ],
      [
        "a",
        "f"
      ],
      [
        "Ġb",
        "u"
      ],
      [
        "en",
        "c"
      ],
      [
        "Ġg",
        "en"
      ],
      [
        "ar",
        "b"
      ],
      [
        "ĠYou",
        "r"
      ],
      [
        "get",
        "her"
      ],
      [
        "Ġad",
        "d"
      ],
      [
        "Ġbo",
        "x"
      ],
      [
        "\"",
        "["
      ],
      [
        "p",
        "r"
      ],
      [
        "Ġf",
        "ight"
      ],
      [
        "Ġh",
        "ang"
      ],
      [
        "Ġto",
        "gether"
      ],
      [
        "om",
        "b"
      ],
      [
        "Ġbe",
        "er"
      ],
      [
        "ac",
        "ks"
      ],
      [
        "we",
        "et"
      ],
      [
        "Ġtoo",
        "k"
      ],
      [
        "Ġche",
        "ck"
      ],
      [
        "ĠY",
        "OU"
      ],
      [
        "arent",
        "ly"
      ],
      [
        "Ġtoile",
        "t"
      ],
      [
        "1",
        "1"
      ],
      [
        "A",
        "n"
      ],
      [
        "z",
        "e"
      ],
      [
        "ou",
        "n"
      ],
      [
        "Ġd",
        "ate"
      ],
      [
        "or",
        "re"
      ],
      [
        "it",
        "ion"
      ],
      [
        "ĠN",
        "ew"
      ],
      [
        "Ġfat",
        "her"
      ],
      [
        "Th",
        "is"
      ],
      [
        "H",
        "ave"
      ],
      [
        "d",
        "le"
      ],
      [
        "s",
        "wer"
      ],
      [
        "Ġthe",
        "se"
      ],
      [
        "Ġp",
        "un"
      ],
      [
        "Ġp",
        "arent"
      ],
      [
        "What",
        "s"
      ],
      [
        "op",
        "h"
      ],
      [
        "Ġcan",
        "n"
      ],
      [
        "Ġcom",
        "ing"
      ],
      [
        "Ġpl",
        "ace"
      ],
      [
        "Ġcon",
        "f"
      ],
      [
        "Ġgr",
        "and"
      ],
      [
        "Ġm",
        "iss"
      ],
      [
        "Ġs",
        "ong"
      ],
      [
        "Ġb",
        "oo"
      ],
      [
        "Ġb",
        "ought"
      ],
      [
        "Ġl",
        "ine"
      ],
      [
        "it",
        "her"
      ],
      [
        "Ġp",
        "ot"
      ],
      [
        "Ġp",
        "ick"
      ],
      [
        "Ġg",
        "ame"
      ],
      [
        "..",
        "..."
      ],
      [
        "Ġo",
        "k"
      ],
      [
        "ic",
        "s"
      ],
      [
        "Ġre",
        "t"
      ],
      [
        "Ġli",
        "st"
      ],
      [
        "Ġst",
        "ud"
      ],
      [
        "ace",
        "book"
      ],
      [
        "ict",
        "ure"
      ],
      [
        "Ġey",
        "e"
      ],
      [
        ",",
        "\"\""
      ],
      [
        "m",
        "p"
      ],
      [
        "t",
        "on"
      ],
      [
        "Ġw",
        "he"
      ],
      [
        "Ġh",
        "alf"
      ],
      [
        "Ġp",
        "os"
      ],
      [
        "Ġp",
        "aper"
      ],
      [
        "Ġg",
        "ave"
      ],
      [
        "am",
        "n"
      ],
      [
        "am",
        "es"
      ],
      [
        "est",
        "er"
      ],
      [
        "Ġunder",
        "stand"
      ],
      [
        "E",
        "S"
      ],
      [
        "t",
        "he"
      ],
      [
        "Ġa",
        "ir"
      ],
      [
        "in",
        "ess"
      ],
      [
        "Ġh",
        "usband"
      ],
      [
        "Ġe",
        "ach"
      ],
      [
        "Ġst",
        "ore"
      ],
      [
        "Ġne",
        "ighb"
      ],
      [
        "Ġcon",
        "d"
      ],
      [
        "Ġlet",
        "ter"
      ],
      [
        "Ġrepl",
        "ied"
      ],
      [
        "Ġinst",
        "ead"
      ],
      [
        "Ġide",
        "a"
      ],
      [
        "O",
        "R"
      ],
      [
        "a",
        "id"
      ],
      [
        "c",
        "hes"
      ],
      [
        "Ġt",
        "est"
      ],
      [
        "Ġm",
        "ight"
      ],
      [
        "Ġp",
        "ain"
      ],
      [
        "Ġe",
        "ar"
      ],
      [
        "ĠB",
        "l"
      ],
      [
        "Ġst",
        "re"
      ],
      [
        "Ġrem",
        "ember"
      ],
      [
        "Ġsn",
        "ow"
      ],
      [
        "Ġact",
        "ually"
      ],
      [
        "augh",
        "ter"
      ],
      [
        "Ġhor",
        "se"
      ],
      [
        "A",
        "A"
      ],
      [
        "u",
        "ce"
      ],
      [
        "er",
        "t"
      ],
      [
        "Ġt",
        "ry"
      ],
      [
        "Ġm",
        "us"
      ],
      [
        "in",
        "es"
      ],
      [
        "in",
        "ks"
      ],
      [
        "Ġin",
        "side"
      ],
      [
        "Ġn",
        "amed"
      ],
      [
        "ip",
        "s"
      ],
      [
        "pl",
        "ain"
      ],
      [
        "Ġany",
        "one"
      ],
      [
        "Ġday",
        "s"
      ],
      [
        "Ġim",
        "p"
      ],
      [
        "ĠTH",
        "E"
      ],
      [
        "ĠMex",
        "ican"
      ],
      [
        "Ġproble",
        "m"
      ],
      [
        "T",
        "hat"
      ],
      [
        "W",
        "e"
      ],
      [
        "i",
        "ec"
      ],
      [
        "Ġm",
        "ast"
      ],
      [
        "Ġs",
        "orry"
      ],
      [
        "on",
        "de"
      ],
      [
        "Ġp",
        "icture"
      ],
      [
        "Ġbe",
        "h"
      ],
      [
        "ut",
        "es"
      ],
      [
        "Ġwas",
        "n"
      ],
      [
        "Ġse",
        "em"
      ],
      [
        "Ġex",
        "p"
      ],
      [
        "ire",
        "d"
      ],
      [
        "Ġstart",
        "ed"
      ],
      [
        "Ġrepl",
        "ies"
      ],
      [
        "S",
        "t"
      ],
      [
        "a",
        "x"
      ],
      [
        "a",
        "ff"
      ],
      [
        "m",
        "on"
      ],
      [
        "Ġt",
        "imes"
      ],
      [
        "Ġme",
        "d"
      ],
      [
        "re",
        "st"
      ],
      [
        "ic",
        "a"
      ],
      [
        "ĠS",
        "c"
      ],
      [
        "ill",
        "ion"
      ],
      [
        "Ġfr",
        "ont"
      ],
      [
        "Ġsi",
        "gn"
      ],
      [
        "Ġqu",
        "est"
      ],
      [
        "I",
        "T"
      ],
      [
        "S",
        "ome"
      ],
      [
        "g",
        "in"
      ],
      [
        "i",
        "ving"
      ],
      [
        "r",
        "r"
      ],
      [
        "Ġj",
        "ump"
      ],
      [
        "Ġs",
        "qu"
      ],
      [
        "Ġf",
        "ing"
      ],
      [
        "Ġf",
        "oot"
      ],
      [
        "is",
        "on"
      ],
      [
        "ur",
        "t"
      ],
      [
        "ĠE",
        "n"
      ],
      [
        "iz",
        "ed"
      ],
      [
        "Ġte",
        "acher"
      ],
      [
        "Ġey",
        "es"
      ],
      [
        "g",
        "ed"
      ],
      [
        "Ġa",
        "w"
      ],
      [
        "an",
        "ks"
      ],
      [
        "in",
        "c"
      ],
      [
        "Ġto",
        "p"
      ],
      [
        "Ġp",
        "ants"
      ],
      [
        "ĠA",
        "pp"
      ],
      [
        "el",
        "s"
      ],
      [
        "ĠR",
        "ed"
      ],
      [
        "Ġdr",
        "ug"
      ],
      [
        "are",
        "d"
      ],
      [
        "Ġor",
        "der"
      ],
      [
        "OO",
        "OO"
      ],
      [
        "ren",
        "ch"
      ],
      [
        "Ġchild",
        "ren"
      ],
      [
        "i",
        "et"
      ],
      [
        "ou",
        "ch"
      ],
      [
        "Ġf",
        "our"
      ],
      [
        "Ġl",
        "ate"
      ],
      [
        "Ġp",
        "ast"
      ],
      [
        "un",
        "g"
      ],
      [
        "Ġn",
        "umber"
      ],
      [
        "Ġla",
        "w"
      ],
      [
        "ĠA",
        "ll"
      ],
      [
        "oo",
        "f"
      ],
      [
        "Ġyour",
        "self"
      ],
      [
        "Ġare",
        "n"
      ],
      [
        "ĠO",
        "h"
      ],
      [
        "Ġdr",
        "unk"
      ],
      [
        "read",
        "y"
      ],
      [
        "Ġrac",
        "ist"
      ],
      [
        "orre",
        "ct"
      ],
      [
        "e",
        "f"
      ],
      [
        "e",
        "g"
      ],
      [
        "y",
        "ing"
      ],
      [
        "an",
        "y"
      ],
      [
        "is",
        "m"
      ],
      [
        "Ġn",
        "ice"
      ],
      [
        "Ġe",
        "as"
      ],
      [
        "Ġhe",
        "ll"
      ],
      [
        "ĠH",
        "is"
      ],
      [
        "ĠD",
        "ad"
      ],
      [
        "ip",
        "p"
      ],
      [
        "The",
        "y"
      ],
      [
        "oh",
        "n"
      ],
      [
        "b",
        "s"
      ],
      [
        "c",
        "hed"
      ],
      [
        "i",
        "o"
      ],
      [
        "Ġa",
        "f"
      ],
      [
        "er",
        "al"
      ],
      [
        "Ġd",
        "one"
      ],
      [
        "Ġf",
        "ell"
      ],
      [
        "Ġp",
        "orn"
      ],
      [
        "en",
        "se"
      ],
      [
        "ut",
        "er"
      ],
      [
        "Ġre",
        "sp"
      ],
      [
        "ĠF",
        "or"
      ],
      [
        "Ġal",
        "ready"
      ],
      [
        "Ġtake",
        "s"
      ],
      [
        "Ġgl",
        "ass"
      ],
      [
        "T",
        "I"
      ],
      [
        "Ġt",
        "ree"
      ],
      [
        "Ġc",
        "our"
      ],
      [
        "\"\"",
        "."
      ],
      [
        "Ġan",
        "swer"
      ],
      [
        "Ġe",
        "gg"
      ],
      [
        "all",
        "ow"
      ],
      [
        "Ġwho",
        "le"
      ],
      [
        "ĠR",
        "us"
      ],
      [
        "Ġco",
        "ld"
      ],
      [
        "Ġpart",
        "y"
      ],
      [
        "Ġwee",
        "k"
      ],
      [
        "r",
        "on"
      ],
      [
        "Ġ",
        "id"
      ],
      [
        "Ġm",
        "il"
      ],
      [
        "si",
        "c"
      ],
      [
        "Ġs",
        "ent"
      ],
      [
        "oke",
        "d"
      ],
      [
        "Ġb",
        "at"
      ],
      [
        "le",
        "d"
      ],
      [
        "Ġan",
        "im"
      ],
      [
        "om",
        "an"
      ],
      [
        "ec",
        "k"
      ],
      [
        "Ġche",
        "ese"
      ],
      [
        "ĠDon",
        "ald"
      ],
      [
        "ĠIr",
        "ish"
      ],
      [
        "ester",
        "day"
      ],
      [
        "a",
        "ut"
      ],
      [
        "i",
        "um"
      ],
      [
        "l",
        "ine"
      ],
      [
        "Ġc",
        "ol"
      ],
      [
        "Ġan",
        "g"
      ],
      [
        "ake",
        "s"
      ],
      [
        "art",
        "h"
      ],
      [
        "Ġ1",
        "2"
      ],
      [
        "l",
        "ing"
      ],
      [
        "n",
        "et"
      ],
      [
        "o",
        "on"
      ],
      [
        "Ġm",
        "ir"
      ],
      [
        "Ġs",
        "al"
      ],
      [
        "Ġc",
        "ri"
      ],
      [
        "it",
        "ler"
      ],
      [
        "Ġy",
        "et"
      ],
      [
        "am",
        "m"
      ],
      [
        "am",
        "s"
      ],
      [
        "ec",
        "h"
      ],
      [
        "ĠP",
        "r"
      ],
      [
        "Ġbl",
        "onde"
      ],
      [
        "Ġdr",
        "op"
      ],
      [
        "Ġcl",
        "ass"
      ],
      [
        "Ġbec",
        "ome"
      ],
      [
        "Ġele",
        "ct"
      ],
      [
        "Ġpol",
        "ice"
      ],
      [
        "Ġmon",
        "th"
      ],
      [
        "b",
        "y"
      ],
      [
        "Ġ",
        "ur"
      ],
      [
        "Ġw",
        "ish"
      ],
      [
        "Ġb",
        "ur"
      ],
      [
        "re",
        "es"
      ],
      [
        "Ġp",
        "op"
      ],
      [
        "Ġg",
        "un"
      ],
      [
        "Ġin",
        "t"
      ],
      [
        "Ġbe",
        "at"
      ],
      [
        "ĠF",
        "acebook"
      ],
      [
        "ĠO",
        "r"
      ],
      [
        "Ġwould",
        "n"
      ],
      [
        "Ġar",
        "ms"
      ],
      [
        "Ġplay",
        "ing"
      ],
      [
        "Ġel",
        "se"
      ],
      [
        "*",
        "*"
      ],
      [
        "l",
        "and"
      ],
      [
        "Ġme",
        "et"
      ],
      [
        "bos",
        "s"
      ],
      [
        "oke",
        "s"
      ],
      [
        "Ġc",
        "ut"
      ],
      [
        "le",
        "x"
      ],
      [
        "ic",
        "ally"
      ],
      [
        "ic",
        "ans"
      ],
      [
        "Ġr",
        "ob"
      ],
      [
        "ĠD",
        "r"
      ],
      [
        "Ġwal",
        "king"
      ],
      [
        "Ġturn",
        "s"
      ],
      [
        "Ġthr",
        "ow"
      ],
      [
        "augh",
        "t"
      ],
      [
        "Ġbeh",
        "ind"
      ],
      [
        "E",
        "N"
      ],
      [
        "E",
        "very"
      ],
      [
        "m",
        "at"
      ],
      [
        "Ġm",
        "ind"
      ],
      [
        "Ġs",
        "and"
      ],
      [
        "Ġc",
        "ard"
      ],
      [
        "Ġd",
        "ress"
      ],
      [
        "Ġd",
        "aughter"
      ],
      [
        "re",
        "s"
      ],
      [
        "it",
        "ed"
      ],
      [
        "Ġin",
        "vent"
      ],
      [
        "Ġout",
        "side"
      ],
      [
        "Ġex",
        "c"
      ],
      [
        "Ġmin",
        "utes"
      ],
      [
        "Ġbath",
        "room"
      ],
      [
        "?",
        "\""
      ],
      [
        "v",
        "ice"
      ],
      [
        "Ġt",
        "on"
      ],
      [
        "ou",
        "ble"
      ],
      [
        "Ġc",
        "oup"
      ],
      [
        "at",
        "ive"
      ],
      [
        "Ġb",
        "as"
      ],
      [
        "Ġd",
        "ep"
      ],
      [
        "Ġbr",
        "other"
      ],
      [
        "!!",
        "!"
      ],
      [
        "Ġfl",
        "o"
      ],
      [
        "Ġmo",
        "ve"
      ],
      [
        "orr",
        "is"
      ],
      [
        "Ġparent",
        "s"
      ],
      [
        "n",
        "ess"
      ],
      [
        "Ġc",
        "ir"
      ],
      [
        "Ġb",
        "ird"
      ],
      [
        "Ġd",
        "el"
      ],
      [
        "Ġp",
        "us"
      ],
      [
        "Ġp",
        "ig"
      ],
      [
        "id",
        "ed"
      ],
      [
        "Ġla",
        "dy"
      ],
      [
        "Ġbe",
        "ar"
      ],
      [
        "ir",
        "t"
      ],
      [
        "ri",
        "ble"
      ],
      [
        "Ġr",
        "u"
      ],
      [
        "ĠD",
        "id"
      ],
      [
        "Ġex",
        "t"
      ],
      [
        "ne",
        "y"
      ],
      [
        "Ġfe",
        "et"
      ],
      [
        "Ġele",
        "ph"
      ],
      [
        "Ġword",
        "s"
      ],
      [
        "Ġper",
        "f"
      ],
      [
        "Ġhappen",
        "ed"
      ],
      [
        "Ġstre",
        "et"
      ],
      [
        "Ġmast",
        "urb"
      ],
      [
        "I",
        "s"
      ],
      [
        "Ġ",
        "boss"
      ],
      [
        "Ġm",
        "ine"
      ],
      [
        "Ġb",
        "and"
      ],
      [
        "Ġb",
        "unch"
      ],
      [
        "Ġd",
        "uring"
      ],
      [
        "Ġp",
        "ir"
      ],
      [
        "is",
        "ed"
      ],
      [
        "en",
        "s"
      ],
      [
        "ar",
        "ge"
      ],
      [
        "Ġin",
        "v"
      ],
      [
        "ĠT",
        "wo"
      ],
      [
        "ort",
        "h"
      ],
      [
        "ĠA",
        "s"
      ],
      [
        "ĠN",
        "e"
      ],
      [
        "ĠN",
        "orris"
      ],
      [
        "ĠG",
        "erman"
      ],
      [
        "ĠJ",
        "ohn"
      ],
      [
        "od",
        "ay"
      ],
      [
        "Ġcl",
        "os"
      ],
      [
        "Ġnew",
        "s"
      ],
      [
        "Ġwatch",
        "ing"
      ],
      [
        "-",
        "-"
      ],
      [
        "?",
        "!"
      ],
      [
        "O",
        "W"
      ],
      [
        "Ġt",
        "en"
      ],
      [
        "Ġme",
        "ans"
      ],
      [
        "Ġin",
        "s"
      ],
      [
        "Ġsh",
        "op"
      ],
      [
        "id",
        "ay"
      ],
      [
        "ic",
        "ian"
      ],
      [
        "ĠH",
        "er"
      ],
      [
        "ig",
        "n"
      ],
      [
        "Ġle",
        "arn"
      ],
      [
        "Ġde",
        "f"
      ],
      [
        "Ġwal",
        "ked"
      ],
      [
        "Ġgr",
        "oup"
      ],
      [
        "Ġpr",
        "ost"
      ],
      [
        "ra",
        "id"
      ],
      [
        "Ġcomp",
        "uter"
      ],
      [
        "c",
        "ed"
      ],
      [
        "y",
        "ou"
      ],
      [
        "Ġt",
        "aking"
      ],
      [
        "it",
        "al"
      ],
      [
        "Ġp",
        "iec"
      ],
      [
        "ar",
        "r"
      ],
      [
        "ed",
        "ding"
      ],
      [
        "ĠM",
        "an"
      ],
      [
        "ul",
        "ar"
      ],
      [
        "Ġar",
        "rest"
      ],
      [
        "Ġi",
        "P"
      ],
      [
        "Ġpo",
        "int"
      ],
      [
        "Ġtyp",
        "e"
      ],
      [
        "C",
        "h"
      ],
      [
        "C",
        "an"
      ],
      [
        "o",
        "e"
      ],
      [
        "at",
        "ch"
      ],
      [
        "Ġb",
        "ank"
      ],
      [
        "es",
        "b"
      ],
      [
        "om",
        "en"
      ],
      [
        "Ġn",
        "uts"
      ],
      [
        "ake",
        "d"
      ],
      [
        "et",
        "h"
      ],
      [
        "ĠT",
        "w"
      ],
      [
        "ri",
        "ght"
      ],
      [
        "Ġre",
        "s"
      ],
      [
        "Ġre",
        "ason"
      ],
      [
        "ĠS",
        "n"
      ],
      [
        "ĠH",
        "itler"
      ],
      [
        "Ġr",
        "abb"
      ],
      [
        "Ġal",
        "so"
      ],
      [
        "00",
        "0"
      ],
      [
        "Ġsit",
        "ting"
      ],
      [
        "Ġaf",
        "raid"
      ],
      [
        "c",
        "um"
      ],
      [
        "i",
        "ence"
      ],
      [
        "Ġ",
        "sist"
      ],
      [
        "Ġ",
        "ice"
      ],
      [
        "ou",
        "d"
      ],
      [
        "Ġst",
        "ay"
      ],
      [
        "ĠW",
        "al"
      ],
      [
        "Ġwor",
        "se"
      ],
      [
        "Ġbl",
        "ood"
      ],
      [
        "Ġrec",
        "ent"
      ],
      [
        "Ġwear",
        "ing"
      ],
      [
        "A",
        "S"
      ],
      [
        "W",
        "h"
      ],
      [
        "i",
        "ot"
      ],
      [
        "he",
        "ad"
      ],
      [
        "Ġc",
        "amp"
      ],
      [
        "es",
        "c"
      ],
      [
        "ĠA",
        "N"
      ],
      [
        "Ġre",
        "g"
      ],
      [
        "Ġsp",
        "end"
      ],
      [
        "Ġco",
        "ll"
      ],
      [
        "Ġcat",
        "ch"
      ],
      [
        "Ġ5",
        "0"
      ],
      [
        "ious",
        "ly"
      ],
      [
        "Ġbus",
        "iness"
      ],
      [
        "Ġhappen",
        "s"
      ],
      [
        "sy",
        "ch"
      ],
      [
        "Ġdin",
        "ner"
      ],
      [
        "Ġwind",
        "ow"
      ],
      [
        "O",
        "h"
      ],
      [
        "_",
        "_"
      ],
      [
        "a",
        "el"
      ],
      [
        "g",
        "ing"
      ],
      [
        "w",
        "here"
      ],
      [
        "er",
        "n"
      ],
      [
        "Ġb",
        "urn"
      ],
      [
        "Ġl",
        "ose"
      ],
      [
        "Ġp",
        "ub"
      ],
      [
        "ĠT",
        "V"
      ],
      [
        "ĠM",
        "ar"
      ],
      [
        "Ġhave",
        "n"
      ],
      [
        "Ġsi",
        "ck"
      ],
      [
        "Ġcl",
        "ub"
      ],
      [
        "ud",
        "d"
      ],
      [
        "ect",
        "ion"
      ],
      [
        "Ġrun",
        "ning"
      ],
      [
        "orr",
        "ow"
      ]
    ]
  }
}